unsigned char model_quantized_tflite[] = {
  0x18, 0x00, 0x00, 0x00, 0x54, 0x46, 0x4c, 0x33, 0x00, 0x00, 0x0e, 0x00,
  0x18, 0x00, 0x04, 0x00, 0x08, 0x00, 0x0c, 0x00, 0x10, 0x00, 0x14, 0x00,
  0x0e, 0x00, 0x00, 0x00, 0x03, 0x00, 0x00, 0x00, 0x74, 0x09, 0x00, 0x00,
  0xb8, 0x05, 0x00, 0x00, 0xa0, 0x05, 0x00, 0x00, 0x04, 0x00, 0x00, 0x00,
  0x0b, 0x00, 0x00, 0x00, 0x90, 0x05, 0x00, 0x00, 0x7c, 0x05, 0x00, 0x00,
  0x24, 0x05, 0x00, 0x00, 0xd4, 0x04, 0x00, 0x00, 0x84, 0x04, 0x00, 0x00,
  0x7c, 0x04, 0x00, 0x00, 0x2c, 0x04, 0x00, 0x00, 0x24, 0x04, 0x00, 0x00,
  0x1c, 0x04, 0x00, 0x00, 0x0c, 0x00, 0x00, 0x00, 0x04, 0x00, 0x00, 0x00,
  0xf4, 0xf6, 0xff, 0xff, 0xb6, 0xfa, 0xff, 0xff, 0x04, 0x00, 0x00, 0x00,
  0x00, 0x04, 0x00, 0x00, 0xa9, 0xeb, 0x56, 0x3e, 0x20, 0x51, 0xee, 0xbe,
  0x27, 0x77, 0xbd, 0x3e, 0x66, 0xbc, 0x2e, 0x3e, 0x9c, 0x89, 0x82, 0x3e,
  0x25, 0x47, 0x96, 0x3f, 0xdc, 0xeb, 0xf4, 0x3f, 0x54, 0x07, 0x28, 0xbf,
  0x5d, 0xe6, 0x97, 0x3f, 0xa8, 0x7b, 0x38, 0x3d, 0xd3, 0x77, 0x83, 0x3f,
  0x09, 0x7d, 0x23, 0x3f, 0x08, 0x37, 0x74, 0xbe, 0xd9, 0xf0, 0xd1, 0x3c,
  0xb7, 0x45, 0x3d, 0xbe, 0xae, 0xe5, 0xae, 0xbf, 0xa2, 0x54, 0x3b, 0xbf,
  0xbd, 0xf4, 0x1c, 0x3e, 0xac, 0x73, 0xe8, 0x3e, 0xfe, 0xb8, 0xe3, 0xbc,
  0xd5, 0x8b, 0x0e, 0xbf, 0x94, 0x79, 0x0e, 0xbf, 0x26, 0xec, 0x12, 0xbe,
  0xe0, 0xf6, 0x2d, 0xbe, 0xaa, 0x26, 0x3b, 0xbe, 0x46, 0x9a, 0xc1, 0xbe,
  0xff, 0xd6, 0xa7, 0xbe, 0x91, 0x5a, 0xac, 0x3e, 0x90, 0x15, 0x99, 0x3e,
  0x6c, 0x26, 0x27, 0x3e, 0x6f, 0x9b, 0x84, 0xbe, 0xd8, 0x74, 0xb6, 0x3c,
  0x62, 0x23, 0xee, 0x3e, 0x38, 0x67, 0xc6, 0x3e, 0xb5, 0xa5, 0x30, 0x3e,
  0x24, 0x6a, 0x56, 0x3f, 0x11, 0xd3, 0x5e, 0x3d, 0xb0, 0x07, 0xc4, 0xbf,
  0xf8, 0xdf, 0xc4, 0x3f, 0x17, 0x0a, 0x74, 0x3d, 0x8d, 0x10, 0x98, 0xbe,
  0xc2, 0xcf, 0x53, 0x3f, 0x38, 0x3c, 0x44, 0x3f, 0x02, 0x2e, 0x29, 0xbe,
  0xf3, 0xc6, 0x96, 0x3f, 0x2a, 0xb0, 0xa3, 0x3e, 0x6a, 0x7d, 0x6c, 0x3d,
  0x76, 0x20, 0xd5, 0x3e, 0xec, 0x0a, 0x95, 0x3f, 0x85, 0x34, 0x8e, 0x3f,
  0xed, 0x60, 0x9b, 0x3f, 0xe6, 0x81, 0x40, 0x3e, 0xdb, 0x49, 0x8c, 0xbf,
  0x8f, 0x6b, 0x34, 0x3f, 0x23, 0x3d, 0x14, 0x3f, 0x5c, 0x4f, 0x78, 0xbe,
  0xf6, 0x41, 0x12, 0x3f, 0xd6, 0x71, 0x68, 0x3f, 0xa7, 0x02, 0x38, 0x3f,
  0xd7, 0x79, 0xf4, 0xbe, 0xd6, 0xd3, 0xb2, 0x3f, 0x6a, 0xca, 0x87, 0xbf,
  0x98, 0x88, 0x37, 0xbf, 0xd9, 0xd0, 0x90, 0xbe, 0xc1, 0x29, 0xf4, 0xbe,
  0x18, 0xa1, 0x2a, 0x3f, 0xfc, 0x37, 0x99, 0xbe, 0xdc, 0x8a, 0xbc, 0xbe,
  0x25, 0x0c, 0xfa, 0x3d, 0xac, 0x1a, 0x58, 0x3f, 0xca, 0x9d, 0xb7, 0x3f,
  0xa3, 0x38, 0x0b, 0xbf, 0x72, 0xf1, 0x80, 0x3f, 0x13, 0x7d, 0x94, 0x3c,
  0xbc, 0xf2, 0x54, 0x3f, 0x61, 0x6f, 0x1b, 0xbe, 0x0a, 0xbd, 0x30, 0xbe,
  0x2f, 0xee, 0x55, 0xbd, 0xed, 0xbc, 0x34, 0x3f, 0x04, 0x6e, 0x88, 0xbf,
  0xc7, 0x14, 0x40, 0xbf, 0x9c, 0xf6, 0x42, 0xbf, 0xd8, 0xf4, 0x4b, 0xbf,
  0x5c, 0x7a, 0x23, 0xbf, 0xa5, 0x2a, 0x8c, 0xbe, 0x34, 0x10, 0x80, 0xbf,
  0xe8, 0xa0, 0xae, 0x3f, 0x7d, 0x60, 0x70, 0x3e, 0x53, 0xbc, 0xa8, 0xbf,
  0x03, 0x55, 0x4c, 0xbf, 0x93, 0x68, 0x3c, 0x40, 0xdc, 0x8f, 0x43, 0x3d,
  0x1f, 0x50, 0xd4, 0xbe, 0x58, 0x12, 0xcc, 0x3e, 0xf3, 0x9b, 0xd8, 0x3d,
  0x70, 0x14, 0xcc, 0xbe, 0x0f, 0x2d, 0x58, 0x3f, 0xd6, 0xa0, 0x46, 0x3f,
  0x3e, 0xb5, 0x3b, 0x3f, 0xc7, 0x46, 0x9c, 0x3f, 0xee, 0xc2, 0x41, 0x3e,
  0x25, 0x8e, 0x17, 0xbf, 0xf0, 0x44, 0x29, 0x3e, 0xcb, 0x04, 0x1d, 0x3f,
  0x2b, 0xa2, 0x10, 0xbe, 0x94, 0x4e, 0x96, 0x3f, 0x83, 0x53, 0x43, 0xbd,
  0xd6, 0x1c, 0x4f, 0x3f, 0xbc, 0xb2, 0x95, 0x3f, 0xdc, 0x12, 0x04, 0x3f,
  0xf8, 0xc8, 0x7e, 0x3f, 0x2d, 0x44, 0x4b, 0xbe, 0xf2, 0x6a, 0xed, 0x3e,
  0x42, 0x87, 0x22, 0x3f, 0x1f, 0x2a, 0x35, 0x3f, 0xe0, 0x6a, 0x42, 0x3f,
  0x35, 0xed, 0x61, 0x3f, 0x48, 0x43, 0x5f, 0xbf, 0x89, 0x43, 0x62, 0x3f,
  0x46, 0x65, 0x8d, 0xbe, 0x63, 0x75, 0x5f, 0xbe, 0x3d, 0xdf, 0x93, 0xbe,
  0xcd, 0xee, 0x5b, 0x3f, 0x5b, 0x84, 0xce, 0x3e, 0xed, 0xee, 0x53, 0x3f,
  0xbc, 0xe9, 0xb5, 0x3d, 0xcd, 0xff, 0xdf, 0x3e, 0xa2, 0xc9, 0x36, 0xbe,
  0xec, 0xe0, 0x8e, 0x3f, 0x04, 0xfc, 0x8d, 0x3f, 0x65, 0x24, 0x2b, 0x3e,
  0x08, 0x4b, 0x94, 0x3f, 0x1a, 0x90, 0x50, 0xbe, 0xe5, 0xbe, 0x33, 0xbe,
  0xd5, 0x50, 0x59, 0xbf, 0xf8, 0x51, 0x67, 0xbe, 0xf3, 0xde, 0x15, 0xbf,
  0x4d, 0xb3, 0x14, 0x3f, 0x29, 0x8b, 0x36, 0xbf, 0x57, 0xf0, 0x5c, 0xbe,
  0x1d, 0x30, 0x84, 0x3f, 0xe4, 0x81, 0x56, 0xbf, 0x6d, 0x36, 0xda, 0xbe,
  0x74, 0xc5, 0x2e, 0x3e, 0x0f, 0x07, 0x4f, 0x3f, 0x1d, 0x7a, 0x8f, 0x3e,
  0x78, 0x84, 0x5e, 0x3f, 0x69, 0xef, 0x14, 0x3f, 0xd7, 0x8b, 0xd8, 0xbe,
  0x53, 0x5d, 0xf5, 0xbe, 0xeb, 0x82, 0x8d, 0xbf, 0x2a, 0xc3, 0x10, 0x3f,
  0x25, 0xa5, 0x37, 0xbe, 0x10, 0x74, 0x93, 0x3e, 0x0d, 0xdb, 0x3a, 0xbf,
  0x0b, 0xcf, 0x4e, 0xbf, 0x32, 0x5d, 0x16, 0x3f, 0x78, 0x4e, 0xb3, 0xbf,
  0x27, 0xdd, 0x53, 0x3e, 0x84, 0x05, 0x06, 0x3f, 0x3f, 0x89, 0x42, 0x3e,
  0xf8, 0x74, 0x7f, 0xbe, 0x42, 0xd5, 0xdb, 0x3e, 0x23, 0xec, 0x86, 0x3e,
  0xc8, 0x8e, 0x6b, 0x3d, 0x81, 0x11, 0x02, 0x40, 0x55, 0x08, 0xd0, 0x3f,
  0x90, 0x21, 0xb8, 0xbf, 0x27, 0xd7, 0xa3, 0x3f, 0x83, 0xd1, 0x66, 0xbe,
  0x16, 0x2c, 0x7d, 0x3f, 0xe5, 0xc6, 0x63, 0xbe, 0x83, 0xb8, 0x3e, 0x3e,
  0x35, 0x2b, 0x83, 0x3f, 0x84, 0x7a, 0x32, 0x3f, 0x93, 0xe5, 0x7f, 0xbf,
  0xb1, 0x41, 0x8e, 0xbd, 0xc8, 0x0b, 0x2d, 0xbf, 0x54, 0xb4, 0x49, 0xbf,
  0x53, 0x3d, 0x84, 0xbf, 0xee, 0xa8, 0xef, 0xbd, 0xeb, 0x06, 0xe0, 0xbf,
  0x6c, 0xea, 0xac, 0x3f, 0xdb, 0x61, 0x08, 0xbf, 0x22, 0x9b, 0x7d, 0xbf,
  0x4d, 0x55, 0x04, 0xbf, 0xb6, 0x38, 0xe8, 0x3f, 0xab, 0x5c, 0x19, 0x3f,
  0x22, 0x8a, 0x69, 0xbf, 0xcf, 0xe9, 0x0b, 0x3f, 0xcd, 0xa6, 0x21, 0x3f,
  0x12, 0xde, 0x10, 0xbe, 0x2c, 0xf2, 0xd1, 0xbf, 0xca, 0x74, 0xe8, 0xbf,
  0x5f, 0x85, 0xd7, 0xbf, 0xbc, 0x7b, 0xcd, 0xbf, 0x5d, 0x12, 0xc9, 0x3e,
  0x26, 0x7e, 0x47, 0xbf, 0x98, 0x30, 0xe7, 0x3f, 0xf8, 0x32, 0x2c, 0xbe,
  0x42, 0x7f, 0xbb, 0xbf, 0x88, 0xa0, 0x95, 0xbf, 0x0c, 0xdd, 0xf2, 0x3f,
  0x48, 0xee, 0x50, 0x3f, 0xb7, 0x77, 0x23, 0xbf, 0x41, 0x24, 0x38, 0x3d,
  0xe7, 0x19, 0x3a, 0x3f, 0xcf, 0x05, 0x87, 0x3e, 0x31, 0x3a, 0x5e, 0x3f,
  0x31, 0x46, 0xb5, 0x3f, 0x6c, 0xfb, 0x5a, 0x3f, 0xc0, 0x2a, 0xa4, 0x3f,
  0xed, 0xa1, 0xac, 0x3e, 0x88, 0x5e, 0xdf, 0xbe, 0x93, 0x52, 0x73, 0x3f,
  0x25, 0x6b, 0x64, 0x3f, 0x59, 0xe4, 0x53, 0xbf, 0x67, 0x18, 0x16, 0x3f,
  0x10, 0xf9, 0x10, 0x3e, 0x00, 0xce, 0x67, 0x3f, 0x90, 0x64, 0xe0, 0x3e,
  0xf5, 0xea, 0x15, 0x3f, 0x9b, 0x3a, 0x3c, 0x3f, 0x53, 0xb5, 0x70, 0x3f,
  0xb3, 0xc7, 0x5f, 0xc0, 0x9a, 0x99, 0x67, 0xc0, 0xd3, 0xfb, 0x79, 0xc0,
  0xcc, 0xc4, 0x85, 0xc0, 0x13, 0xf3, 0x6d, 0x3f, 0xa8, 0xf6, 0x9b, 0x3f,
  0x6f, 0xe6, 0xc5, 0xbf, 0x9c, 0x0e, 0x94, 0x3f, 0x14, 0x01, 0x07, 0xbd,
  0x5a, 0x26, 0x85, 0xc0, 0x27, 0x0b, 0x9d, 0xbf, 0x0e, 0x61, 0xbc, 0x3e,
  0xbd, 0x5e, 0x61, 0xc0, 0x67, 0xc2, 0x7a, 0x3f, 0xe6, 0xb7, 0xbb, 0x3e,
  0x7f, 0x22, 0x3d, 0x3e, 0x72, 0x48, 0x1e, 0xbf, 0x46, 0x8e, 0x23, 0xbe,
  0xa5, 0xd3, 0x52, 0x3e, 0x29, 0xcf, 0x32, 0xbe, 0x1c, 0x54, 0x0a, 0x3f,
  0x2d, 0xa7, 0xb3, 0xbf, 0x87, 0xbb, 0x8b, 0x3f, 0x58, 0xb5, 0xdd, 0xbe,
  0x8c, 0x00, 0xcc, 0xbf, 0xeb, 0x7c, 0x21, 0x3f, 0x93, 0x4e, 0x00, 0x40,
  0x0a, 0xc1, 0x8e, 0x3c, 0xa9, 0x23, 0xfd, 0xbd, 0x8b, 0x66, 0xa8, 0x3d,
  0xff, 0x26, 0x6a, 0x3e, 0xa8, 0x07, 0x5d, 0xbe, 0x04, 0xfb, 0xff, 0xff,
  0x08, 0xfb, 0xff, 0xff, 0xca, 0xfe, 0xff, 0xff, 0x04, 0x00, 0x00, 0x00,
  0x40, 0x00, 0x00, 0x00, 0x10, 0x59, 0x4d, 0xc0, 0x9a, 0xec, 0x7d, 0xc0,
  0xe4, 0xfb, 0x73, 0xc0, 0x1b, 0xf3, 0x42, 0xc0, 0x8e, 0xbb, 0x7c, 0x3f,
  0x11, 0xc4, 0xb1, 0x3f, 0x8e, 0xaa, 0x56, 0x40, 0x8c, 0x28, 0xd1, 0xbe,
  0x0f, 0x88, 0xbc, 0x3f, 0x3f, 0xe4, 0x73, 0xc0, 0xd2, 0xf8, 0x89, 0x40,
  0x7f, 0x1a, 0x33, 0x3f, 0xd0, 0x95, 0x4a, 0xc0, 0xc3, 0x5a, 0xa1, 0x3f,
  0xd6, 0xdb, 0x37, 0x3f, 0x0e, 0xce, 0x8c, 0xbf, 0x58, 0xfb, 0xff, 0xff,
  0x1a, 0xff, 0xff, 0xff, 0x04, 0x00, 0x00, 0x00, 0x40, 0x00, 0x00, 0x00,
  0xf7, 0xa4, 0x8f, 0x3d, 0x8f, 0x82, 0xc8, 0x3d, 0x50, 0x31, 0xbd, 0x3d,
  0xb7, 0x21, 0x86, 0x3d, 0x9f, 0xe2, 0x15, 0x3f, 0xde, 0xb5, 0xef, 0xbc,
  0x97, 0x7a, 0x9e, 0xbd, 0x68, 0xe1, 0x66, 0x3f, 0xf9, 0x4f, 0x81, 0xbd,
  0x47, 0x42, 0xbe, 0x3d, 0x5f, 0xdf, 0xbe, 0x3d, 0xac, 0xf3, 0xfc, 0x3e,
  0xc7, 0xb6, 0x8f, 0x3d, 0x4c, 0xc4, 0x51, 0x3f, 0xd7, 0xfb, 0xdc, 0x3e,
  0x50, 0xa2, 0x66, 0x3e, 0x66, 0xff, 0xff, 0xff, 0x04, 0x00, 0x00, 0x00,
  0x40, 0x00, 0x00, 0x00, 0xbc, 0xfd, 0x50, 0xbf, 0x0a, 0xa9, 0xdf, 0x3a,
  0x6d, 0x45, 0x89, 0xbe, 0xf4, 0x7d, 0x00, 0x3f, 0x61, 0x68, 0x60, 0xbf,
  0xef, 0x03, 0x7a, 0x3f, 0x82, 0xae, 0xef, 0xbe, 0xfd, 0x2c, 0x84, 0xbe,
  0xaa, 0x49, 0xfb, 0x3e, 0xaf, 0x11, 0xe8, 0x3e, 0x74, 0xad, 0x41, 0xbf,
  0x2b, 0xd6, 0x2f, 0x3f, 0xa1, 0x0a, 0x86, 0x3f, 0xee, 0xbd, 0xef, 0xbe,
  0x7f, 0x1c, 0x0c, 0x40, 0x3d, 0x24, 0xc7, 0x3e, 0xb2, 0xff, 0xff, 0xff,
  0x04, 0x00, 0x00, 0x00, 0x40, 0x00, 0x00, 0x00, 0x76, 0xcc, 0xc1, 0xbd,
  0xe4, 0x36, 0x40, 0xbc, 0x9b, 0x75, 0xdd, 0x3c, 0x5c, 0x50, 0x11, 0xbf,
  0xdf, 0x2d, 0x0e, 0xbd, 0x0a, 0xb2, 0xaf, 0x3d, 0xf8, 0x61, 0xd1, 0x3e,
  0xc5, 0x80, 0xa4, 0x3c, 0xa8, 0x0c, 0x6e, 0x3d, 0x2c, 0x37, 0xa2, 0xbd,
  0xfa, 0x02, 0x58, 0xbd, 0x91, 0x9b, 0x4d, 0xbc, 0xf2, 0x60, 0x42, 0x3e,
  0x0b, 0x56, 0xd0, 0x3e, 0x9a, 0xb1, 0x06, 0x3f, 0xb9, 0x39, 0x18, 0xbe,
  0x00, 0x00, 0x06, 0x00, 0x08, 0x00, 0x04, 0x00, 0x06, 0x00, 0x00, 0x00,
  0x04, 0x00, 0x00, 0x00, 0x04, 0x00, 0x00, 0x00, 0xf1, 0x18, 0x0c, 0xbf,
  0x58, 0xfc, 0xff, 0xff, 0x0f, 0x00, 0x00, 0x00, 0x54, 0x4f, 0x43, 0x4f,
  0x20, 0x43, 0x6f, 0x6e, 0x76, 0x65, 0x72, 0x74, 0x65, 0x64, 0x2e, 0x00,
  0x01, 0x00, 0x00, 0x00, 0x10, 0x00, 0x00, 0x00, 0x0c, 0x00, 0x14, 0x00,
  0x04, 0x00, 0x08, 0x00, 0x0c, 0x00, 0x10, 0x00, 0x0c, 0x00, 0x00, 0x00,
  0xf0, 0x00, 0x00, 0x00, 0xe4, 0x00, 0x00, 0x00, 0xd8, 0x00, 0x00, 0x00,
  0x04, 0x00, 0x00, 0x00, 0x03, 0x00, 0x00, 0x00, 0x90, 0x00, 0x00, 0x00,
  0x48, 0x00, 0x00, 0x00, 0x04, 0x00, 0x00, 0x00, 0xce, 0xff, 0xff, 0xff,
  0x00, 0x00, 0x00, 0x08, 0x18, 0x00, 0x00, 0x00, 0x0c, 0x00, 0x00, 0x00,
  0x04, 0x00, 0x00, 0x00, 0xbc, 0xfc, 0xff, 0xff, 0x01, 0x00, 0x00, 0x00,
  0x06, 0x00, 0x00, 0x00, 0x03, 0x00, 0x00, 0x00, 0x01, 0x00, 0x00, 0x00,
  0x08, 0x00, 0x00, 0x00, 0x07, 0x00, 0x00, 0x00, 0x00, 0x00, 0x0e, 0x00,
  0x14, 0x00, 0x00, 0x00, 0x08, 0x00, 0x0c, 0x00, 0x07, 0x00, 0x10, 0x00,
  0x0e, 0x00, 0x00, 0x00, 0x00, 0x00, 0x00, 0x08, 0x1c, 0x00, 0x00, 0x00,
  0x10, 0x00, 0x00, 0x00, 0x04, 0x00, 0x00, 0x00, 0xba, 0xff, 0xff, 0xff,
  0x00, 0x00, 0x00, 0x01, 0x01, 0x00, 0x00, 0x00, 0x01, 0x00, 0x00, 0x00,
  0x03, 0x00, 0x00, 0x00, 0x00, 0x00, 0x00, 0x00, 0x05, 0x00, 0x00, 0x00,
  0x04, 0x00, 0x00, 0x00, 0x00, 0x00, 0x0e, 0x00, 0x16, 0x00, 0x00, 0x00,
  0x08, 0x00, 0x0c, 0x00, 0x07, 0x00, 0x10, 0x00, 0x0e, 0x00, 0x00, 0x00,
  0x00, 0x00, 0x00, 0x08, 0x24, 0x00, 0x00, 0x00, 0x18, 0x00, 0x00, 0x00,
  0x0c, 0x00, 0x00, 0x00, 0x00, 0x00, 0x06, 0x00, 0x08, 0x00, 0x07, 0x00,
  0x06, 0x00, 0x00, 0x00, 0x00, 0x00, 0x00, 0x01, 0x01, 0x00, 0x00, 0x00,
  0x00, 0x00, 0x00, 0x00, 0x03, 0x00, 0x00, 0x00, 0x09, 0x00, 0x00, 0x00,
  0x03, 0x00, 0x00, 0x00, 0x02, 0x00, 0x00, 0x00, 0x01, 0x00, 0x00, 0x00,
  0x06, 0x00, 0x00, 0x00, 0x01, 0x00, 0x00, 0x00, 0x09, 0x00, 0x00, 0x00,
  0x0a, 0x00, 0x00, 0x00, 0x70, 0x02, 0x00, 0x00, 0x20, 0x02, 0x00, 0x00,
  0xe4, 0x01, 0x00, 0x00, 0xa0, 0x01, 0x00, 0x00, 0x64, 0x01, 0x00, 0x00,
  0x1c, 0x01, 0x00, 0x00, 0xe0, 0x00, 0x00, 0x00, 0xa4, 0x00, 0x00, 0x00,
  0x5c, 0x00, 0x00, 0x00, 0x04, 0x00, 0x00, 0x00, 0xc6, 0xfd, 0xff, 0xff,
  0x44, 0x00, 0x00, 0x00, 0x0a, 0x00, 0x00, 0x00, 0x2c, 0x00, 0x00, 0x00,
  0x0c, 0x00, 0x00, 0x00, 0x08, 0x00, 0x0c, 0x00, 0x04, 0x00, 0x08, 0x00,
  0x08, 0x00, 0x00, 0x00, 0x10, 0x00, 0x00, 0x00, 0x04, 0x00, 0x00, 0x00,
  0x01, 0x00, 0x00, 0x00, 0x00, 0x00, 0x7f, 0x43, 0x01, 0x00, 0x00, 0x00,
  0x00, 0x00, 0x00, 0x00, 0x0b, 0x00, 0x00, 0x00, 0x64, 0x65, 0x6e, 0x73,
  0x65, 0x5f, 0x69, 0x6e, 0x70, 0x75, 0x74, 0x00, 0x02, 0x00, 0x00, 0x00,
  0x01, 0x00, 0x00, 0x00, 0x01, 0x00, 0x00, 0x00, 0x1a, 0xfe, 0xff, 0xff,
  0x34, 0x00, 0x00, 0x00, 0x03, 0x00, 0x00, 0x00, 0x0c, 0x00, 0x00, 0x00,
  0x04, 0x00, 0x00, 0x00, 0x0c, 0xfe, 0xff, 0xff, 0x18, 0x00, 0x00, 0x00,
  0x64, 0x65, 0x6e, 0x73, 0x65, 0x5f, 0x32, 0x2f, 0x6b, 0x65, 0x72, 0x6e,
  0x65, 0x6c, 0x2f, 0x74, 0x72, 0x61, 0x6e, 0x73, 0x70, 0x6f, 0x73, 0x65,
  0x00, 0x00, 0x00, 0x00, 0x02, 0x00, 0x00, 0x00, 0x01, 0x00, 0x00, 0x00,
  0x10, 0x00, 0x00, 0x00, 0x5e, 0xfe, 0xff, 0xff, 0x2c, 0x00, 0x00, 0x00,
  0x01, 0x00, 0x00, 0x00, 0x0c, 0x00, 0x00, 0x00, 0x04, 0x00, 0x00, 0x00,
  0x50, 0xfe, 0xff, 0xff, 0x13, 0x00, 0x00, 0x00, 0x64, 0x65, 0x6e, 0x73,
  0x65, 0x5f, 0x32, 0x2f, 0x4d, 0x61, 0x74, 0x4d, 0x75, 0x6c, 0x5f, 0x62,
  0x69, 0x61, 0x73, 0x00, 0x01, 0x00, 0x00, 0x00, 0x01, 0x00, 0x00, 0x00,
  0x96, 0xfe, 0xff, 0xff, 0x28, 0x00, 0x00, 0x00, 0x05, 0x00, 0x00, 0x00,
  0x0c, 0x00, 0x00, 0x00, 0x04, 0x00, 0x00, 0x00, 0x88, 0xfe, 0xff, 0xff,
  0x0f, 0x00, 0x00, 0x00, 0x64, 0x65, 0x6e, 0x73, 0x65, 0x5f, 0x32, 0x2f,
  0x42, 0x69, 0x61, 0x73, 0x41, 0x64, 0x64, 0x00, 0x02, 0x00, 0x00, 0x00,
  0x01, 0x00, 0x00, 0x00, 0x01, 0x00, 0x00, 0x00, 0xce, 0xfe, 0xff, 0xff,
  0x34, 0x00, 0x00, 0x00, 0x09, 0x00, 0x00, 0x00, 0x0c, 0x00, 0x00, 0x00,
  0x04, 0x00, 0x00, 0x00, 0xc0, 0xfe, 0xff, 0xff, 0x18, 0x00, 0x00, 0x00,
  0x64, 0x65, 0x6e, 0x73, 0x65, 0x5f, 0x31, 0x2f, 0x6b, 0x65, 0x72, 0x6e,
  0x65, 0x6c, 0x2f, 0x74, 0x72, 0x61, 0x6e, 0x73, 0x70, 0x6f, 0x73, 0x65,
  0x00, 0x00, 0x00, 0x00, 0x02, 0x00, 0x00, 0x00, 0x10, 0x00, 0x00, 0x00,
  0x10, 0x00, 0x00, 0x00, 0x12, 0xff, 0xff, 0xff, 0x2c, 0x00, 0x00, 0x00,
  0x02, 0x00, 0x00, 0x00, 0x0c, 0x00, 0x00, 0x00, 0x04, 0x00, 0x00, 0x00,
  0x04, 0xff, 0xff, 0xff, 0x13, 0x00, 0x00, 0x00, 0x64, 0x65, 0x6e, 0x73,
  0x65, 0x5f, 0x31, 0x2f, 0x4d, 0x61, 0x74, 0x4d, 0x75, 0x6c, 0x5f, 0x62,
  0x69, 0x61, 0x73, 0x00, 0x01, 0x00, 0x00, 0x00, 0x10, 0x00, 0x00, 0x00,
  0x4a, 0xff, 0xff, 0xff, 0x30, 0x00, 0x00, 0x00, 0x06, 0x00, 0x00, 0x00,
  0x0c, 0x00, 0x00, 0x00, 0x04, 0x00, 0x00, 0x00, 0x3c, 0xff, 0xff, 0xff,
  0x16, 0x00, 0x00, 0x00, 0x64, 0x65, 0x6e, 0x73, 0x65, 0x2f, 0x6b, 0x65,
  0x72, 0x6e, 0x65, 0x6c, 0x2f, 0x74, 0x72, 0x61, 0x6e, 0x73, 0x70, 0x6f,
  0x73, 0x65, 0x00, 0x00, 0x02, 0x00, 0x00, 0x00, 0x10, 0x00, 0x00, 0x00,
  0x01, 0x00, 0x00, 0x00, 0x8a, 0xff, 0xff, 0xff, 0x2c, 0x00, 0x00, 0x00,
  0x04, 0x00, 0x00, 0x00, 0x0c, 0x00, 0x00, 0x00, 0x04, 0x00, 0x00, 0x00,
  0x7c, 0xff, 0xff, 0xff, 0x11, 0x00, 0x00, 0x00, 0x64, 0x65, 0x6e, 0x73,
  0x65, 0x2f, 0x4d, 0x61, 0x74, 0x4d, 0x75, 0x6c, 0x5f, 0x62, 0x69, 0x61,
  0x73, 0x00, 0x00, 0x00, 0x01, 0x00, 0x00, 0x00, 0x10, 0x00, 0x00, 0x00,
  0xc2, 0xff, 0xff, 0xff, 0x2c, 0x00, 0x00, 0x00, 0x07, 0x00, 0x00, 0x00,
  0x0c, 0x00, 0x00, 0x00, 0x04, 0x00, 0x00, 0x00, 0xb4, 0xff, 0xff, 0xff,
  0x11, 0x00, 0x00, 0x00, 0x61, 0x63, 0x74, 0x69, 0x76, 0x61, 0x74, 0x69,
  0x6f, 0x6e, 0x5f, 0x31, 0x2f, 0x52, 0x65, 0x6c, 0x75, 0x00, 0x00, 0x00,
  0x02, 0x00, 0x00, 0x00, 0x01, 0x00, 0x00, 0x00, 0x10, 0x00, 0x00, 0x00,
  0x00, 0x00, 0x0e, 0x00, 0x14, 0x00, 0x04, 0x00, 0x00, 0x00, 0x08, 0x00,
  0x0c, 0x00, 0x10, 0x00, 0x0e, 0x00, 0x00, 0x00, 0x2c, 0x00, 0x00, 0x00,
  0x08, 0x00, 0x00, 0x00, 0x10, 0x00, 0x00, 0x00, 0x08, 0x00, 0x00, 0x00,
  0x04, 0x00, 0x04, 0x00, 0x04, 0x00, 0x00, 0x00, 0x0f, 0x00, 0x00, 0x00,
  0x61, 0x63, 0x74, 0x69, 0x76, 0x61, 0x74, 0x69, 0x6f, 0x6e, 0x2f, 0x52,
  0x65, 0x6c, 0x75, 0x00, 0x02, 0x00, 0x00, 0x00, 0x01, 0x00, 0x00, 0x00,
  0x10, 0x00, 0x00, 0x00, 0x01, 0x00, 0x00, 0x00, 0x10, 0x00, 0x00, 0x00,
  0x00, 0x00, 0x0a, 0x00, 0x0c, 0x00, 0x07, 0x00, 0x00, 0x00, 0x08, 0x00,
  0x0a, 0x00, 0x00, 0x00, 0x00, 0x00, 0x00, 0x09, 0x03, 0x00, 0x00, 0x00
};
unsigned int model_quantized_tflite_len = 2484;
