#include "config.h"
// if having troubles with min/max, uncomment the following
// #undef min    
// #undef max
#ifdef __has_attribute
#define HAVE_ATTRIBUTE(x) __has_attribute(x)
#else
#define HAVE_ATTRIBUTE(x) 0
#endif
#if HAVE_ATTRIBUTE(aligned) || (defined(__GNUC__) && !defined(__clang__))
#define DATA_ALIGN_ATTRIBUTE __attribute__((aligned(4)))
#else
#define DATA_ALIGN_ATTRIBUTE
#endif 


#ifdef A2C_ver1 
const unsigned char rl_model[] DATA_ALIGN_ATTRIBUTE = {
    0x18, 0x00, 0x00, 0x00, 0x54, 0x46, 0x4c, 0x33, 0x00, 0x00, 0x0e, 0x00,
    0x18, 0x00, 0x04, 0x00, 0x08, 0x00, 0x0c, 0x00, 0x10, 0x00, 0x14, 0x00,
    0x0e, 0x00, 0x00, 0x00, 0x03, 0x00, 0x00, 0x00, 0x00, 0x17, 0x00, 0x00,
    0x0c, 0x00, 0x00, 0x00, 0x10, 0x00, 0x00, 0x00, 0x20, 0x00, 0x00, 0x00,
    0x01, 0x00, 0x00, 0x00, 0x40, 0x13, 0x00, 0x00, 0x0f, 0x00, 0x00, 0x00,
    0x54, 0x4f, 0x43, 0x4f, 0x20, 0x43, 0x6f, 0x6e, 0x76, 0x65, 0x72, 0x74,
    0x65, 0x64, 0x2e, 0x00, 0x0b, 0x00, 0x00, 0x00, 0x14, 0x13, 0x00, 0x00,
    0xfc, 0x12, 0x00, 0x00, 0x64, 0x12, 0x00, 0x00, 0x54, 0x11, 0x00, 0x00,
    0xc4, 0x10, 0x00, 0x00, 0xbc, 0x10, 0x00, 0x00, 0x2c, 0x10, 0x00, 0x00,
    0x24, 0x10, 0x00, 0x00, 0x1c, 0x10, 0x00, 0x00, 0x0c, 0x00, 0x00, 0x00,
    0x04, 0x00, 0x00, 0x00, 0xf0, 0xe9, 0xff, 0xff, 0x36, 0xed, 0xff, 0xff,
    0x04, 0x00, 0x00, 0x00, 0x00, 0x10, 0x00, 0x00, 0x75, 0x2f, 0x72, 0x3e,
    0xa2, 0x3b, 0x24, 0xbd, 0x44, 0x3a, 0x05, 0xbe, 0xe4, 0xac, 0x01, 0x3f,
    0xe7, 0x8b, 0x53, 0x3e, 0x7e, 0xf2, 0x5b, 0x3e, 0x14, 0xdd, 0x2e, 0xbe,
    0x3a, 0xa5, 0xd2, 0x3d, 0x6b, 0xe3, 0xc8, 0x3e, 0xd7, 0xa0, 0x21, 0x3e,
    0xf4, 0xa3, 0x52, 0x3e, 0x5e, 0x79, 0x81, 0xbd, 0xa1, 0xf9, 0xb2, 0xbd,
    0xad, 0xd6, 0x29, 0xbe, 0x5f, 0xca, 0xd5, 0xbd, 0x6b, 0x76, 0x93, 0xbe,
    0x5a, 0x3b, 0xf2, 0xbe, 0xff, 0xe3, 0x63, 0x3d, 0x77, 0x82, 0x8c, 0x3d,
    0xc9, 0xcd, 0xe9, 0xbe, 0xfe, 0x73, 0x27, 0x3e, 0x26, 0x5e, 0xcd, 0xbd,
    0xbe, 0xe9, 0x54, 0xbe, 0x60, 0x10, 0xbd, 0x3b, 0xa0, 0xb4, 0x43, 0x3f,
    0xb7, 0x12, 0xe5, 0x3e, 0xd9, 0xbb, 0xac, 0xbd, 0x5e, 0x51, 0xdb, 0xbd,
    0x73, 0x50, 0x46, 0x3e, 0x2f, 0x84, 0xaa, 0x3b, 0x09, 0xcd, 0xa9, 0x3e,
    0x67, 0x48, 0xaa, 0xbe, 0xfe, 0x66, 0xb5, 0x3e, 0xd9, 0xec, 0xa2, 0xbe,
    0x96, 0x72, 0xc4, 0x3e, 0xc2, 0x4d, 0x93, 0xbd, 0x9b, 0xcf, 0xf9, 0xbd,
    0x90, 0x2b, 0xa9, 0x3e, 0x8e, 0xa2, 0x8a, 0x3d, 0x11, 0x55, 0x67, 0xbe,
    0xe1, 0x5b, 0xc4, 0x3e, 0xca, 0x03, 0x7a, 0xbd, 0x81, 0x45, 0x89, 0x3d,
    0xef, 0x90, 0x2c, 0xbd, 0x6a, 0x21, 0xa4, 0xbe, 0x8d, 0xff, 0x65, 0xbe,
    0xf5, 0xe8, 0x1b, 0xbf, 0xea, 0xf0, 0x06, 0xbe, 0x8d, 0x1e, 0x01, 0x3f,
    0x35, 0x92, 0x51, 0x3e, 0xad, 0x6b, 0x7f, 0xbe, 0x7b, 0xe1, 0x1d, 0xbe,
    0xc4, 0x1c, 0xfe, 0xbe, 0xbf, 0xdd, 0x14, 0xbe, 0x09, 0x3a, 0xd5, 0xbd,
    0x95, 0x4e, 0x3f, 0x3f, 0x67, 0x18, 0x63, 0xbe, 0xcf, 0x89, 0x5b, 0x3e,
    0x68, 0x6c, 0x95, 0x3e, 0x1e, 0x5d, 0xdc, 0xbe, 0x7f, 0xd3, 0x2c, 0x3e,
    0xc1, 0x80, 0xe6, 0x3d, 0xfe, 0x01, 0x80, 0xbd, 0x7a, 0xbd, 0xc1, 0xbd,
    0xa3, 0x20, 0x5b, 0xbe, 0x95, 0xf4, 0x07, 0x3e, 0x2b, 0x04, 0xa6, 0xbe,
    0xd6, 0x83, 0xcd, 0x3e, 0xea, 0x89, 0x26, 0xbe, 0xcc, 0x47, 0x0a, 0x3e,
    0x46, 0xde, 0x4c, 0xbe, 0x27, 0xe2, 0x7b, 0xbc, 0x08, 0xe8, 0x80, 0x3e,
    0xbd, 0xd3, 0x81, 0x3e, 0x97, 0x0b, 0x17, 0x3d, 0x26, 0xda, 0xf7, 0xbd,
    0x4d, 0xb3, 0x74, 0x3e, 0xb8, 0x71, 0x1f, 0xbd, 0x7f, 0xc7, 0x3c, 0x3d,
    0x83, 0x1b, 0xfb, 0x3d, 0xe6, 0xba, 0x68, 0xbe, 0xaf, 0x0a, 0xff, 0xbe,
    0x13, 0xff, 0x8c, 0xbd, 0xda, 0x78, 0x7f, 0x3e, 0x54, 0xd5, 0x12, 0xbf,
    0x09, 0xae, 0x2a, 0xbe, 0xbc, 0xb9, 0x42, 0xbe, 0x4e, 0x62, 0x75, 0xbe,
    0x1f, 0x3e, 0x52, 0xbe, 0x15, 0xd9, 0x6c, 0xbe, 0x86, 0xcc, 0xff, 0x3e,
    0x5a, 0xfd, 0x4f, 0xbe, 0xae, 0x4c, 0x19, 0xbc, 0x06, 0x24, 0xa9, 0x3e,
    0x9e, 0xfc, 0x0b, 0xbe, 0x6e, 0xd3, 0x3d, 0x3e, 0x6c, 0xcb, 0xf7, 0x3c,
    0xb9, 0x72, 0x88, 0x3e, 0xd0, 0xed, 0xda, 0xbe, 0x15, 0xf4, 0xaa, 0xbd,
    0xb3, 0x32, 0x95, 0x3e, 0xda, 0x62, 0x7f, 0x3e, 0x21, 0xb1, 0xe8, 0xbc,
    0xfb, 0x33, 0x56, 0xbe, 0x65, 0xe8, 0xcc, 0xbe, 0x89, 0x95, 0x91, 0x3e,
    0x93, 0xc6, 0x6c, 0x3e, 0x1e, 0x31, 0x52, 0x3e, 0x19, 0x06, 0xc6, 0x3d,
    0x9c, 0x8e, 0x0c, 0xbf, 0x2b, 0x42, 0xbb, 0x3d, 0x10, 0x32, 0x2e, 0xbe,
    0x36, 0x1c, 0x87, 0x3c, 0x3d, 0x5e, 0x4b, 0x3e, 0x5e, 0xfd, 0xfa, 0x3e,
    0xe1, 0xaa, 0x85, 0xbe, 0xdf, 0xce, 0x39, 0xbe, 0x8b, 0xc3, 0xad, 0xbd,
    0xb4, 0xc6, 0x42, 0x3e, 0xb6, 0x18, 0x44, 0xbd, 0x13, 0x9d, 0x49, 0x3e,
    0x9f, 0x2f, 0x18, 0xbe, 0x92, 0x61, 0xa6, 0xbb, 0x98, 0x8f, 0xa3, 0x3d,
    0xa2, 0x0a, 0x3f, 0xbc, 0x8e, 0x29, 0xe6, 0xbe, 0x65, 0xa9, 0x19, 0xbf,
    0x71, 0xf9, 0x78, 0x3e, 0x5f, 0x89, 0x4a, 0xbe, 0x44, 0x5c, 0x2a, 0x3f,
    0x1f, 0x10, 0x88, 0x3e, 0x23, 0xe4, 0x30, 0xbe, 0xf6, 0x35, 0x55, 0x3d,
    0x02, 0x95, 0xbb, 0x3e, 0xbf, 0x7b, 0xaf, 0xbe, 0x85, 0xde, 0x9e, 0xbe,
    0x58, 0xc6, 0x9c, 0x3b, 0x5b, 0x4e, 0x5f, 0xbc, 0x74, 0x16, 0x9a, 0x3d,
    0x13, 0xe8, 0x53, 0x3e, 0xed, 0x36, 0x1f, 0xbf, 0xb8, 0xdf, 0x1d, 0xbe,
    0x50, 0x71, 0xc1, 0x3e, 0x96, 0xaf, 0x51, 0xbe, 0xbb, 0x4a, 0xb6, 0xbe,
    0xa3, 0xa4, 0x9c, 0xbd, 0xb7, 0xa4, 0xa5, 0x3e, 0xb3, 0x7a, 0xfc, 0xbd,
    0x24, 0x8e, 0x90, 0x3e, 0xe1, 0x6e, 0xb0, 0x3d, 0x8c, 0x1b, 0x8a, 0xbe,
    0xe1, 0x40, 0x22, 0xbd, 0xda, 0x05, 0x43, 0xbe, 0xcd, 0x1d, 0x55, 0xba,
    0xa7, 0xd1, 0xae, 0xbd, 0xa1, 0x9e, 0x04, 0xbd, 0x37, 0xcd, 0xb5, 0xbd,
    0xde, 0x99, 0xcb, 0x3e, 0x32, 0xeb, 0x93, 0xbc, 0x5c, 0x62, 0x14, 0xbf,
    0xff, 0x0c, 0x68, 0x3e, 0xcb, 0x07, 0xb3, 0x3e, 0x2c, 0xe4, 0x26, 0x3e,
    0x60, 0x53, 0xc8, 0x3e, 0xe8, 0xa7, 0xbd, 0x3c, 0x75, 0xc1, 0x46, 0xbe,
    0x2e, 0x20, 0x8e, 0xbe, 0x20, 0xb9, 0x86, 0xbe, 0x2f, 0xe5, 0x60, 0xbc,
    0x60, 0x2b, 0x0b, 0xbf, 0x93, 0x01, 0x8a, 0xbe, 0x6e, 0x3f, 0xa3, 0x3d,
    0xaa, 0xbd, 0xea, 0x3e, 0xcc, 0xce, 0x28, 0xbe, 0xa5, 0xe9, 0xbc, 0x3d,
    0x7e, 0x69, 0xe7, 0x3d, 0x82, 0xb6, 0x45, 0x3e, 0x4f, 0x79, 0x61, 0x3e,
    0xaa, 0xab, 0x9d, 0x3e, 0x49, 0xd7, 0x81, 0x3e, 0x36, 0xc4, 0xce, 0x3e,
    0x8f, 0x24, 0xeb, 0x3d, 0x3f, 0xa3, 0x60, 0xbe, 0x64, 0x55, 0x98, 0x3e,
    0x25, 0x37, 0x10, 0x3f, 0xaf, 0x3e, 0xd6, 0xbd, 0x72, 0x28, 0x09, 0x3d,
    0x3d, 0xcf, 0x15, 0xbe, 0xc5, 0x39, 0xde, 0xbc, 0x59, 0x5c, 0xa5, 0x3e,
    0xd6, 0x4d, 0xac, 0xbe, 0xb1, 0xcc, 0x45, 0x3e, 0x79, 0xd0, 0x66, 0x3e,
    0x90, 0xe6, 0x04, 0xbe, 0x45, 0x5f, 0x74, 0x3e, 0xa5, 0xd4, 0x72, 0x3e,
    0x85, 0xcd, 0x72, 0x3c, 0xd1, 0x25, 0xd1, 0x3e, 0xef, 0xe6, 0xcb, 0xbe,
    0x47, 0xb2, 0x63, 0x3c, 0x45, 0x6f, 0x15, 0xbe, 0x02, 0x49, 0x05, 0xbe,
    0x95, 0xa9, 0xff, 0x3e, 0xfc, 0xb8, 0xa4, 0xbd, 0x73, 0xac, 0xe9, 0xbd,
    0xdc, 0x1a, 0x25, 0x3e, 0x10, 0xff, 0x9c, 0x3d, 0xe9, 0xc9, 0xe6, 0x3e,
    0x13, 0xbc, 0xc0, 0xbc, 0xc3, 0x2a, 0x30, 0x3f, 0x99, 0x0c, 0x38, 0x3e,
    0x58, 0xdf, 0x9f, 0xbc, 0x1c, 0xff, 0xb4, 0xbe, 0x76, 0x7a, 0xd7, 0x3c,
    0x3e, 0xcc, 0xb5, 0x3e, 0xaf, 0x62, 0xf0, 0xbb, 0x32, 0xde, 0xac, 0x3e,
    0xcf, 0x37, 0xcf, 0xbe, 0xbe, 0x55, 0x6d, 0x3d, 0x29, 0x07, 0x16, 0x3d,
    0x05, 0x08, 0x2a, 0x3e, 0xc8, 0xec, 0xad, 0x3e, 0x10, 0xfa, 0x53, 0x3e,
    0x63, 0x7b, 0xd4, 0xbe, 0x7c, 0xd9, 0x6a, 0xbd, 0xb8, 0x79, 0xbb, 0xbe,
    0xdc, 0x19, 0x3a, 0xbe, 0x25, 0x37, 0x00, 0x3e, 0x26, 0x97, 0xad, 0xbc,
    0xf2, 0x75, 0x8d, 0x3e, 0x5c, 0xaa, 0x5a, 0xbe, 0x16, 0x14, 0xfd, 0x3d,
    0xb1, 0x86, 0xcc, 0x3e, 0xfe, 0x52, 0x4d, 0xbe, 0xcc, 0xcc, 0xde, 0xbe,
    0xfe, 0x40, 0x81, 0x3e, 0xab, 0x71, 0x45, 0xbe, 0x89, 0xf6, 0x2b, 0xbd,
    0x1a, 0x4d, 0x91, 0x3d, 0x27, 0x08, 0x6c, 0x3e, 0x72, 0x0d, 0xd1, 0xbd,
    0x3b, 0x2a, 0xfa, 0x3d, 0x5b, 0x37, 0x12, 0x3e, 0x5b, 0xba, 0x59, 0xbd,
    0x1e, 0xa3, 0x3b, 0xbe, 0x3c, 0x9e, 0xc3, 0xba, 0x9c, 0x4d, 0x06, 0xbf,
    0xe4, 0xa1, 0x7b, 0x3d, 0x13, 0x97, 0x3e, 0xbe, 0x9d, 0x94, 0xfd, 0xbe,
    0x5e, 0xd2, 0x04, 0xbf, 0xa2, 0x6a, 0x00, 0xbd, 0x5a, 0xeb, 0xd5, 0x3d,
    0x14, 0x0d, 0xdd, 0xbe, 0x0f, 0x54, 0xb0, 0x3d, 0x1e, 0x2b, 0xd0, 0xbd,
    0x5e, 0x02, 0xc6, 0x3e, 0xfa, 0x27, 0x37, 0x3e, 0xe0, 0x1e, 0x78, 0x3f,
    0x14, 0xe2, 0xe0, 0xbb, 0x90, 0x81, 0xca, 0x3c, 0xec, 0xbb, 0x1e, 0x3f,
    0x5d, 0x69, 0xab, 0xbe, 0x71, 0xff, 0xa9, 0xbe, 0xb1, 0x19, 0xa3, 0x3e,
    0xf2, 0x4a, 0x38, 0x3c, 0x4f, 0x9b, 0xa5, 0xbe, 0x2c, 0xe3, 0xae, 0xbe,
    0x95, 0xc0, 0x70, 0x3e, 0xfd, 0x82, 0x98, 0xbe, 0x96, 0x71, 0xdf, 0xbe,
    0xbd, 0x29, 0x73, 0xbe, 0x3f, 0x09, 0x00, 0xbf, 0x29, 0x41, 0x21, 0x3f,
    0xaf, 0x84, 0x9f, 0xbd, 0x65, 0x58, 0x6a, 0xbe, 0x4b, 0x50, 0xe3, 0xbc,
    0x58, 0x32, 0x79, 0xbe, 0xee, 0xa9, 0x0d, 0x3e, 0xf1, 0x48, 0x91, 0xbe,
    0x0b, 0x62, 0x03, 0x3e, 0x67, 0xa8, 0x83, 0xbe, 0x55, 0x78, 0xd6, 0x3e,
    0x6e, 0xdc, 0x4e, 0xbe, 0xae, 0x8b, 0xd0, 0xbc, 0xa0, 0x11, 0x91, 0xbe,
    0xf7, 0x66, 0x1a, 0x3f, 0x47, 0x46, 0x11, 0x3d, 0x4e, 0x23, 0x23, 0xbe,
    0x60, 0xd7, 0x0b, 0x3e, 0x2d, 0x63, 0xee, 0x3e, 0xee, 0x11, 0x8f, 0x3e,
    0xda, 0x90, 0x49, 0xbd, 0x79, 0x2c, 0x41, 0x3e, 0x26, 0x92, 0x16, 0xbe,
    0x38, 0xcd, 0x44, 0x3e, 0xe9, 0x62, 0xca, 0x3e, 0x5c, 0x6c, 0x9d, 0x3e,
    0xf5, 0x35, 0xf8, 0x3e, 0xd1, 0x79, 0x37, 0x3f, 0x0b, 0xf8, 0x33, 0x3e,
    0xcc, 0x38, 0x63, 0x3d, 0x9e, 0x35, 0x23, 0xbe, 0xb2, 0x16, 0xcf, 0x3e,
    0xef, 0xf4, 0xae, 0x3e, 0x99, 0xc2, 0x84, 0x3e, 0xe5, 0xbc, 0x0d, 0x3e,
    0xaa, 0x30, 0x66, 0x3c, 0x70, 0x90, 0xe8, 0x3e, 0xde, 0xfc, 0xc3, 0xbc,
    0x2b, 0x17, 0x83, 0x3d, 0x00, 0x15, 0x17, 0xbe, 0xdb, 0xd9, 0x3f, 0x3e,
    0x67, 0x48, 0xd4, 0x3d, 0xbf, 0xc5, 0x41, 0xbd, 0x8b, 0x3a, 0x2b, 0x3e,
    0xbe, 0xb1, 0x30, 0xbf, 0x3d, 0x12, 0xd6, 0xbc, 0x8c, 0x8c, 0x82, 0xbe,
    0xc7, 0x37, 0xbe, 0x3e, 0x96, 0x0b, 0x6b, 0xbc, 0x1d, 0xe2, 0xef, 0x3e,
    0x04, 0x90, 0x1b, 0xbe, 0x9f, 0xfe, 0x9d, 0x3e, 0x4a, 0x58, 0xea, 0x3d,
    0xe6, 0x4c, 0x9d, 0x3e, 0xfa, 0x16, 0x58, 0x3e, 0x6b, 0xad, 0x91, 0xbe,
    0xa9, 0xdf, 0x24, 0x3f, 0x8c, 0x27, 0x7d, 0xbe, 0xf2, 0xf6, 0x38, 0x3d,
    0x54, 0x02, 0x83, 0xbe, 0x92, 0xd3, 0x28, 0x3e, 0x4a, 0xcb, 0xa2, 0xbd,
    0x0e, 0xca, 0x07, 0x3f, 0xad, 0xe7, 0x5b, 0x3e, 0xd3, 0x03, 0x01, 0x3f,
    0xf0, 0xee, 0x32, 0x3f, 0xb2, 0x06, 0x4e, 0xbe, 0x65, 0x2e, 0x55, 0x3e,
    0x3f, 0xb6, 0x98, 0x3c, 0x25, 0x03, 0x14, 0x3d, 0x2a, 0xdc, 0xa7, 0x3e,
    0x1a, 0x33, 0x59, 0xbe, 0x87, 0xd6, 0x35, 0x3b, 0xba, 0x10, 0xf4, 0x3e,
    0x36, 0x14, 0x8f, 0xbe, 0xe4, 0x24, 0x83, 0x3e, 0x95, 0x8d, 0xa6, 0xbe,
    0x4c, 0x13, 0x1f, 0xbd, 0x1f, 0xe3, 0x0c, 0xbe, 0x3d, 0x07, 0x5d, 0x3e,
    0x4c, 0x89, 0x0b, 0xbe, 0xde, 0xc9, 0xb5, 0x3d, 0xab, 0xab, 0xd0, 0xbe,
    0xaa, 0xb3, 0xc4, 0xbd, 0x64, 0xd3, 0xe8, 0xbd, 0x16, 0xe7, 0xf2, 0x3e,
    0x40, 0xfe, 0xa5, 0x3d, 0x9a, 0xe7, 0x71, 0xbe, 0xb9, 0xbb, 0x06, 0xbe,
    0x5c, 0x13, 0x9c, 0xbe, 0xe2, 0xc8, 0x06, 0x3e, 0x52, 0xc7, 0xbe, 0x3e,
    0x9d, 0x29, 0x23, 0x3e, 0xd8, 0x59, 0xb3, 0x3e, 0x99, 0x21, 0x1b, 0x3e,
    0x6a, 0x72, 0x4b, 0xbd, 0x8d, 0xfc, 0x97, 0x3d, 0x6e, 0x05, 0x16, 0xbe,
    0xd7, 0x23, 0xff, 0xbe, 0xa3, 0x05, 0xe0, 0x3d, 0xe8, 0x95, 0xb2, 0x3e,
    0x13, 0xab, 0xcf, 0xbe, 0x10, 0xeb, 0xfd, 0x3d, 0x09, 0xd9, 0x9a, 0x3e,
    0x28, 0x31, 0x3a, 0x3e, 0xee, 0x8f, 0x48, 0xbe, 0x50, 0xed, 0x8b, 0x3e,
    0x9e, 0xa0, 0x7b, 0xbe, 0xb1, 0xb4, 0xca, 0xbd, 0x54, 0x51, 0xae, 0xbe,
    0x30, 0xb9, 0x3a, 0x3e, 0xa7, 0x2b, 0xec, 0xbd, 0x50, 0x22, 0x90, 0x3d,
    0xe7, 0x55, 0x87, 0xbd, 0x59, 0x56, 0x09, 0x3e, 0x27, 0x9b, 0x93, 0xbe,
    0x5c, 0xf2, 0xdc, 0x3e, 0xde, 0x31, 0xa8, 0x3e, 0x24, 0x72, 0x5b, 0xbe,
    0x57, 0xc7, 0xf8, 0x3e, 0x09, 0x3e, 0xbb, 0x3d, 0xfc, 0x5d, 0xa0, 0xbe,
    0x71, 0xe9, 0xfe, 0x3d, 0x38, 0x41, 0xbf, 0x3d, 0x4d, 0x4d, 0x01, 0x3e,
    0xb4, 0x65, 0x80, 0x3d, 0x60, 0xec, 0x87, 0x3e, 0x09, 0xaf, 0xf9, 0xbe,
    0x07, 0x89, 0x80, 0xbe, 0xb0, 0x28, 0x32, 0x3f, 0x41, 0xa5, 0x03, 0xbe,
    0x06, 0x37, 0xbf, 0xbe, 0xb1, 0x34, 0x1d, 0xbe, 0x5e, 0xab, 0x72, 0x3e,
    0x6d, 0xd2, 0xe4, 0xbe, 0xdb, 0x2d, 0x1f, 0x3c, 0x1e, 0x2f, 0x10, 0x3d,
    0x0c, 0x1a, 0x48, 0xbd, 0xa9, 0x86, 0xc1, 0x3e, 0x9c, 0x46, 0x44, 0xbe,
    0x4d, 0xc8, 0x7f, 0xbe, 0xba, 0xed, 0xb5, 0x3e, 0x53, 0x95, 0x19, 0x3e,
    0x44, 0x60, 0x83, 0x3e, 0x64, 0x21, 0xf7, 0xbe, 0x19, 0xdb, 0x5e, 0xbe,
    0x05, 0x50, 0xef, 0xbe, 0x39, 0xa0, 0xb9, 0x3e, 0xa2, 0xb6, 0xc3, 0xbe,
    0x2d, 0xef, 0xb4, 0xbe, 0x60, 0x87, 0x2a, 0x3f, 0x89, 0x91, 0x28, 0x3e,
    0x90, 0x17, 0xe0, 0xbe, 0x4e, 0x4c, 0xaa, 0x3e, 0x14, 0xb0, 0x1f, 0x3e,
    0xd9, 0x54, 0x9b, 0xbe, 0x36, 0xb4, 0x5c, 0xbe, 0x82, 0x31, 0x2b, 0xbe,
    0x38, 0x84, 0xd1, 0x3e, 0x5a, 0x87, 0xef, 0xbd, 0x58, 0x7d, 0x8c, 0x3d,
    0x33, 0x02, 0x51, 0x3e, 0x3e, 0x2b, 0xf1, 0x3e, 0x3c, 0x19, 0xbc, 0x3e,
    0xfa, 0x4e, 0x10, 0x3f, 0x9b, 0x85, 0xa7, 0x3d, 0x08, 0xcd, 0x09, 0xbf,
    0xb5, 0xbd, 0x06, 0xbc, 0x00, 0x29, 0x90, 0xbd, 0xe8, 0xb7, 0x44, 0xbd,
    0x14, 0xf6, 0xaa, 0x3e, 0x6b, 0xac, 0xca, 0xbd, 0xd4, 0x0f, 0xaa, 0xbe,
    0xf3, 0x9d, 0x2e, 0x3c, 0xc3, 0xbe, 0x4e, 0xbe, 0x0f, 0x5e, 0x17, 0xbf,
    0xa3, 0x85, 0xad, 0x3e, 0x28, 0x3e, 0x9f, 0x3e, 0x3c, 0xf7, 0x89, 0x3e,
    0x21, 0x7b, 0xb4, 0xbe, 0x8c, 0x25, 0x08, 0x3f, 0xa4, 0x4f, 0xe3, 0xbd,
    0x50, 0x95, 0xac, 0xbe, 0xa3, 0x9a, 0x01, 0x3e, 0x6a, 0x01, 0xc3, 0x3e,
    0x6c, 0x60, 0x08, 0x3e, 0x65, 0xc5, 0x76, 0xbe, 0x81, 0xd8, 0xdc, 0xbd,
    0x3c, 0xdb, 0xd6, 0xbd, 0xae, 0x19, 0x17, 0x3f, 0x9c, 0x13, 0x04, 0xbf,
    0x85, 0xd3, 0x96, 0x3d, 0x6f, 0x27, 0x74, 0xbd, 0x35, 0x2e, 0xd6, 0x3e,
    0x74, 0x45, 0xbd, 0xbd, 0x8e, 0xc2, 0xb8, 0x3e, 0xba, 0x4e, 0xe8, 0xbe,
    0x4c, 0xd3, 0x96, 0xbe, 0x62, 0xb2, 0x03, 0xbe, 0x35, 0x27, 0x83, 0x3e,
    0x2d, 0x67, 0x56, 0x3e, 0xe5, 0xac, 0xb4, 0x3d, 0xeb, 0x6b, 0xc9, 0x3e,
    0x12, 0x89, 0xb4, 0x3d, 0xcb, 0x78, 0x30, 0xbc, 0xd3, 0xef, 0xab, 0xbe,
    0x4f, 0x3e, 0xa7, 0xbc, 0x68, 0x77, 0xbb, 0xbe, 0xf3, 0x94, 0x88, 0x3e,
    0x69, 0x2a, 0x93, 0x3d, 0xd3, 0x4f, 0x4a, 0xbf, 0xd2, 0xa2, 0xe7, 0xbd,
    0xd2, 0x88, 0x05, 0xbf, 0xa6, 0x3d, 0x3c, 0xbe, 0x0a, 0x86, 0x5f, 0x3e,
    0x93, 0x42, 0x3c, 0x3e, 0x3c, 0x40, 0x92, 0x3d, 0xa8, 0x31, 0x93, 0x3e,
    0xb2, 0x79, 0x3e, 0xbe, 0xd7, 0x34, 0x19, 0xbc, 0x00, 0x1c, 0xfa, 0x3d,
    0xf5, 0xb8, 0xa7, 0x3d, 0x1e, 0x69, 0xba, 0x3e, 0x39, 0x1e, 0xaa, 0x3e,
    0x5f, 0xd1, 0x9f, 0xbb, 0xc4, 0xfe, 0x62, 0xbe, 0x13, 0xdb, 0x30, 0x3f,
    0xe8, 0x27, 0x59, 0xbe, 0xde, 0xed, 0x26, 0x3f, 0xcb, 0x5d, 0x05, 0x3f,
    0x61, 0x31, 0xb9, 0x3e, 0x9e, 0xb5, 0x5d, 0x3e, 0xba, 0x1e, 0xcf, 0xbe,
    0xca, 0x52, 0x0d, 0x3c, 0x88, 0x0f, 0xc1, 0x3e, 0x2b, 0x24, 0x00, 0x3e,
    0x83, 0x1e, 0xac, 0xbd, 0x2e, 0xad, 0x3e, 0xbd, 0x8e, 0x1a, 0xb9, 0xbd,
    0xea, 0x5d, 0x8c, 0x3d, 0xef, 0x27, 0xad, 0xbd, 0xe9, 0x8e, 0x9f, 0x3e,
    0xcd, 0xab, 0xf0, 0xbe, 0x89, 0xe9, 0x5e, 0xbe, 0x64, 0x08, 0x6a, 0xbe,
    0x87, 0x2f, 0xd3, 0xbe, 0xc1, 0x0c, 0x2b, 0x3f, 0xd7, 0xdf, 0xa5, 0xbe,
    0x2e, 0xf7, 0x61, 0xbe, 0x32, 0xeb, 0x3a, 0x3e, 0x52, 0x09, 0x11, 0x3f,
    0x05, 0xe0, 0xa3, 0xbe, 0xc7, 0x6a, 0xec, 0x3e, 0x07, 0xb6, 0x03, 0x3e,
    0x0d, 0x1c, 0xd7, 0x3d, 0xee, 0x7d, 0xa4, 0x3e, 0x81, 0x66, 0xcf, 0xbd,
    0x81, 0xb5, 0x85, 0xbe, 0x6a, 0xcc, 0x26, 0x3e, 0x1b, 0x5a, 0xfb, 0xbe,
    0xc2, 0x6d, 0x57, 0x3e, 0x1d, 0x58, 0xca, 0x3e, 0xea, 0xf9, 0x2b, 0xbf,
    0x0d, 0xb4, 0xaf, 0x3d, 0xb7, 0xac, 0x6c, 0xbd, 0x63, 0x7c, 0xaf, 0xbe,
    0xe4, 0xf8, 0x8d, 0xbe, 0xc2, 0x4d, 0x6d, 0x3d, 0xe6, 0x49, 0x8f, 0xbe,
    0x64, 0xee, 0x35, 0x3e, 0x77, 0xf3, 0xd9, 0xbd, 0x9a, 0xab, 0xd9, 0xbe,
    0xc5, 0xbc, 0x4d, 0x3d, 0x97, 0x0e, 0xa1, 0xbe, 0xf9, 0x16, 0xb6, 0x3e,
    0xc0, 0x9b, 0xd0, 0xbe, 0xd8, 0xff, 0x9d, 0x3e, 0x29, 0x52, 0x6d, 0x3e,
    0xfd, 0x08, 0x20, 0xbf, 0x54, 0xa0, 0xdd, 0xbd, 0xe8, 0x67, 0x7e, 0x3e,
    0xc0, 0x64, 0xb9, 0x3e, 0x50, 0x81, 0x8a, 0xbe, 0xd6, 0x68, 0xe1, 0xbe,
    0x85, 0x39, 0x8f, 0xbe, 0xba, 0x2e, 0x09, 0xbe, 0x28, 0x49, 0x2a, 0xbd,
    0x00, 0x40, 0x14, 0xbd, 0xdf, 0x99, 0x2b, 0x3f, 0x7e, 0xbd, 0xd0, 0x3a,
    0xa4, 0xa8, 0x09, 0xbf, 0x60, 0xdc, 0x16, 0xbe, 0x26, 0x37, 0x44, 0xbd,
    0xa2, 0x59, 0x26, 0xbc, 0xa8, 0xbf, 0x0b, 0xbe, 0x40, 0x38, 0x67, 0x3c,
    0x60, 0xed, 0x07, 0x3f, 0x73, 0xf0, 0xae, 0xbe, 0x89, 0x8e, 0xb6, 0x3e,
    0xe3, 0x74, 0x45, 0x3e, 0x25, 0xaf, 0x19, 0x3e, 0x42, 0x41, 0x52, 0x3d,
    0x68, 0xd7, 0xac, 0x3e, 0x32, 0x34, 0x9c, 0xbc, 0xe3, 0x5d, 0xe4, 0xbe,
    0x09, 0x18, 0x6b, 0x3d, 0x0a, 0x06, 0x9c, 0xbe, 0xeb, 0xc3, 0xea, 0x3d,
    0x80, 0x84, 0x1e, 0xbd, 0x79, 0xe0, 0xf5, 0xbe, 0x3c, 0x18, 0x27, 0x3a,
    0x57, 0x70, 0xa2, 0xbc, 0xe6, 0x58, 0xc5, 0x3d, 0xc3, 0x12, 0x12, 0xbe,
    0x52, 0x4e, 0x71, 0xbe, 0x24, 0xfa, 0x4f, 0x3e, 0x55, 0xb2, 0x2a, 0xbe,
    0x1a, 0x75, 0x53, 0x3d, 0xfa, 0xf2, 0x08, 0xbf, 0x04, 0x1b, 0x62, 0xbe,
    0x34, 0x2f, 0x60, 0x3d, 0xb6, 0xe3, 0x99, 0x3e, 0xc0, 0xa4, 0x8c, 0xbe,
    0x08, 0x2f, 0xe0, 0xbe, 0x52, 0x24, 0xe1, 0x3d, 0xf5, 0x91, 0x26, 0xbe,
    0x59, 0x84, 0xb2, 0x3e, 0x56, 0x2f, 0x79, 0xbe, 0x24, 0x3b, 0x55, 0xbe,
    0xb7, 0x1c, 0xba, 0xbe, 0x88, 0x1a, 0x97, 0x3d, 0x14, 0x10, 0x8d, 0xbc,
    0x2b, 0xca, 0xa4, 0x3e, 0xec, 0xf8, 0x8a, 0x3e, 0x99, 0xd4, 0xe7, 0xbd,
    0x8c, 0xb3, 0x02, 0xbe, 0xe1, 0x4d, 0xc2, 0x3e, 0xb9, 0xb5, 0xfe, 0xbd,
    0x8e, 0xfe, 0x96, 0x3e, 0x2b, 0x43, 0x45, 0xbe, 0xc8, 0x80, 0x55, 0xbd,
    0x4c, 0xec, 0x95, 0x3d, 0x1d, 0xf2, 0x01, 0xbf, 0xd5, 0x1d, 0x94, 0xbe,
    0x87, 0xa7, 0x92, 0xbe, 0xf4, 0xc0, 0xf1, 0x3e, 0xa3, 0xf3, 0xff, 0xbe,
    0x7b, 0x48, 0xc0, 0x3e, 0x20, 0x9a, 0x41, 0x3d, 0xcc, 0x6d, 0x98, 0xbe,
    0x4b, 0x71, 0xbf, 0xbd, 0x42, 0x3b, 0x4a, 0x3e, 0xd0, 0x98, 0xd4, 0xbe,
    0xb3, 0xfc, 0x28, 0x3f, 0x97, 0xac, 0x26, 0xbf, 0x56, 0x87, 0x3e, 0xbd,
    0xe2, 0x4f, 0xed, 0xbe, 0xdd, 0x6d, 0x16, 0xbe, 0xd6, 0x28, 0xb3, 0xbd,
    0xd8, 0x6b, 0x72, 0x3e, 0xa9, 0x30, 0x16, 0x3e, 0x0b, 0x60, 0xa7, 0x3e,
    0x5a, 0x47, 0xf5, 0x3d, 0x0f, 0x05, 0x20, 0xbd, 0x83, 0x85, 0xe6, 0x3b,
    0x07, 0xae, 0x79, 0x3e, 0xbe, 0x46, 0x1e, 0x3f, 0x78, 0xab, 0x9c, 0xbd,
    0x2f, 0x11, 0x05, 0xbf, 0x22, 0x4a, 0xb6, 0xbe, 0x34, 0xb6, 0x11, 0x3e,
    0xce, 0x03, 0x46, 0xbc, 0x19, 0xb1, 0x36, 0x3d, 0x99, 0x06, 0x55, 0xbb,
    0xae, 0x21, 0x9e, 0x3d, 0x60, 0xfe, 0x76, 0xbe, 0xf1, 0x53, 0xb7, 0x3d,
    0x29, 0x7a, 0x15, 0x3e, 0x2f, 0x14, 0x8c, 0x3e, 0x62, 0x98, 0x5e, 0xbe,
    0x3a, 0xbe, 0x92, 0x3e, 0x45, 0xc4, 0x20, 0xbe, 0x53, 0xd4, 0xcd, 0x3e,
    0x9f, 0xa5, 0xea, 0xbd, 0x12, 0xb4, 0x6a, 0xbf, 0xe5, 0xb6, 0xfa, 0x3d,
    0x41, 0xe3, 0x55, 0x3e, 0x86, 0xa0, 0xb4, 0xbc, 0xb3, 0xba, 0xbe, 0x3e,
    0xa5, 0x98, 0x1f, 0x3e, 0x0e, 0x8d, 0xc7, 0x3c, 0xfb, 0xbd, 0x1a, 0x3f,
    0xf2, 0xcf, 0x91, 0xbc, 0xef, 0xd3, 0x1f, 0xbe, 0x45, 0x38, 0xe4, 0xbc,
    0x4c, 0xd8, 0xd9, 0x3e, 0x89, 0x3f, 0x91, 0x3d, 0xdf, 0x51, 0x99, 0x3d,
    0xdc, 0xf2, 0xae, 0xbe, 0xfe, 0x75, 0x2a, 0xbe, 0x6d, 0xfc, 0xb8, 0xbd,
    0xfd, 0xd1, 0x91, 0xbd, 0xe2, 0x84, 0x82, 0x3d, 0x6d, 0x74, 0xc3, 0xbd,
    0xcf, 0xaa, 0x05, 0xbe, 0xdb, 0xdb, 0xa6, 0x3e, 0xb1, 0x74, 0x9b, 0xbd,
    0xd4, 0x7e, 0x66, 0xbe, 0xba, 0x0e, 0x3f, 0x3e, 0x6b, 0x52, 0xad, 0x3e,
    0xe6, 0x28, 0x3c, 0xbe, 0x69, 0x2c, 0xe6, 0x3c, 0xd6, 0xab, 0x8a, 0x3e,
    0x48, 0xca, 0x21, 0x3f, 0x62, 0x0c, 0xea, 0xbd, 0x71, 0x22, 0x21, 0xbf,
    0xd8, 0xbc, 0x20, 0x3f, 0x9b, 0xe1, 0x88, 0x3e, 0xa7, 0x9c, 0xc2, 0x3e,
    0xfc, 0xbb, 0xc5, 0x3e, 0xfb, 0x90, 0x2a, 0xbe, 0x77, 0x89, 0x52, 0xbd,
    0xe1, 0x73, 0xf9, 0x3d, 0x34, 0xee, 0xb3, 0xbc, 0xb9, 0x44, 0x83, 0x3e,
    0x0d, 0xc4, 0x9c, 0x3d, 0xf2, 0xcd, 0x06, 0xbf, 0x1b, 0xb7, 0xad, 0xbe,
    0xb4, 0x5a, 0x28, 0xbe, 0x3d, 0x00, 0x9f, 0x3e, 0x15, 0x6f, 0x23, 0x3e,
    0xdf, 0xde, 0xff, 0x3d, 0xd6, 0xda, 0x89, 0xbe, 0xde, 0xce, 0xf5, 0x3e,
    0x00, 0x2e, 0x3b, 0x3e, 0xf4, 0xb5, 0xd2, 0x3e, 0x3e, 0x8e, 0x77, 0x3e,
    0x6a, 0x73, 0x1f, 0xbe, 0xc7, 0xc2, 0xd0, 0x3e, 0xf0, 0xac, 0xa2, 0x3e,
    0xed, 0x6f, 0x8f, 0xbe, 0x84, 0x77, 0xc4, 0x3e, 0x2e, 0x88, 0x8d, 0xbc,
    0x4a, 0x98, 0x49, 0xba, 0xfb, 0xed, 0x26, 0x3e, 0x69, 0xbd, 0xc4, 0x3c,
    0xf9, 0xe2, 0x02, 0x3f, 0x54, 0x8f, 0x6d, 0x3e, 0x15, 0x1b, 0x73, 0x3e,
    0x07, 0x02, 0x2d, 0xbc, 0x13, 0x50, 0x83, 0x3e, 0x5d, 0x70, 0x73, 0xbe,
    0xe6, 0x5d, 0x60, 0x3e, 0xdb, 0x1c, 0x34, 0xbe, 0x98, 0x58, 0xe1, 0xbd,
    0x7c, 0x19, 0xba, 0x3e, 0xc3, 0x42, 0x84, 0xbe, 0xba, 0xa1, 0x59, 0xbe,
    0xba, 0xb3, 0xe1, 0xbd, 0x8b, 0x4f, 0x04, 0xbe, 0x06, 0x59, 0xa8, 0x3e,
    0x58, 0x77, 0xc3, 0xbd, 0xf8, 0x3a, 0x04, 0x3e, 0xed, 0xa9, 0x31, 0x3e,
    0x4c, 0x3d, 0xc9, 0xbe, 0x57, 0x7c, 0x48, 0xbd, 0x0e, 0x39, 0xf6, 0x3e,
    0x3a, 0x80, 0x80, 0xbe, 0xb3, 0x03, 0x95, 0xbe, 0x02, 0xd9, 0x6a, 0xbd,
    0xca, 0x62, 0x11, 0x3e, 0x54, 0xe2, 0x8c, 0xbe, 0x2e, 0x7e, 0xa2, 0x3e,
    0x70, 0xb2, 0x16, 0xbe, 0xac, 0x67, 0x23, 0xbe, 0xa6, 0xe1, 0xa2, 0x3e,
    0xbe, 0x57, 0x90, 0xbd, 0xe6, 0xf2, 0xea, 0x3d, 0xec, 0x2f, 0xe0, 0x3e,
    0xbd, 0x9f, 0xd6, 0x3d, 0x3c, 0xe5, 0xb5, 0xbd, 0x85, 0xd4, 0x50, 0x3e,
    0x39, 0x42, 0x86, 0x3e, 0x63, 0x89, 0xca, 0xbe, 0x2d, 0x7d, 0xdb, 0xbe,
    0xde, 0xff, 0xab, 0x3c, 0x27, 0xeb, 0xc4, 0xbd, 0x30, 0xf9, 0x44, 0xbe,
    0xfb, 0x46, 0x26, 0x3f, 0x98, 0x7e, 0x5c, 0x3e, 0x50, 0x1d, 0xaf, 0x3e,
    0xa1, 0xeb, 0x13, 0xbe, 0x18, 0x57, 0x39, 0x3e, 0x9b, 0x54, 0xf4, 0xbd,
    0x31, 0xfc, 0x54, 0xbd, 0x14, 0x61, 0x7d, 0xbd, 0x48, 0x12, 0xb3, 0x3e,
    0x38, 0x98, 0x9c, 0xbe, 0x3f, 0x8d, 0x75, 0xbc, 0xb5, 0x05, 0x8e, 0x3e,
    0x8a, 0x7a, 0x42, 0xbe, 0xc0, 0x10, 0xcc, 0x3c, 0x8a, 0xe0, 0xaf, 0x3d,
    0x16, 0xbf, 0x39, 0xbd, 0x8b, 0x68, 0xbf, 0xbe, 0xdd, 0x06, 0xb2, 0x3d,
    0xf3, 0x3e, 0xcd, 0xbe, 0xd4, 0x37, 0x2c, 0xbe, 0x3e, 0xbd, 0xf2, 0xbd,
    0x9e, 0x9b, 0xea, 0x3e, 0x9f, 0x3f, 0xcf, 0x3d, 0xb1, 0x1d, 0x5a, 0xbe,
    0x1d, 0xde, 0x71, 0xbd, 0xb1, 0xcf, 0x89, 0xbe, 0x30, 0x2f, 0x9a, 0xbd,
    0x59, 0x7b, 0x19, 0xbf, 0x14, 0x0c, 0x06, 0xbe, 0xe3, 0x50, 0x0c, 0xbf,
    0xe7, 0x07, 0x10, 0xbe, 0x9e, 0x73, 0x52, 0x3d, 0x15, 0x0a, 0x70, 0xbe,
    0x00, 0x79, 0x87, 0xbd, 0x9c, 0xee, 0x11, 0x3e, 0xb3, 0x29, 0x0a, 0x3f,
    0x20, 0xb4, 0x2d, 0xbe, 0xa6, 0xe2, 0x0f, 0x3e, 0xc8, 0x46, 0x95, 0xbe,
    0xe3, 0x04, 0x2b, 0xbe, 0xfc, 0xc2, 0x5e, 0xbe, 0x7a, 0x70, 0xb3, 0x3e,
    0x02, 0x84, 0x8b, 0xbe, 0x3f, 0x88, 0xce, 0x3e, 0xbd, 0xb0, 0x3e, 0xbf,
    0xf0, 0xba, 0x32, 0xbf, 0xa0, 0x7d, 0x29, 0xbe, 0xea, 0x24, 0x98, 0x3d,
    0xe8, 0x79, 0x7e, 0xbe, 0x95, 0xf9, 0x89, 0x3d, 0x07, 0x1b, 0x2a, 0x3f,
    0xe6, 0xe0, 0xc0, 0xbd, 0x6d, 0x93, 0xd7, 0x3d, 0xd1, 0x0f, 0x7e, 0x3d,
    0xce, 0xab, 0x19, 0x3f, 0xf1, 0xf9, 0xee, 0xbe, 0x43, 0x4e, 0xb9, 0xbc,
    0xf1, 0xd2, 0x1a, 0xbe, 0x85, 0x1c, 0x83, 0x3e, 0x73, 0x5d, 0xee, 0xbd,
    0xa0, 0x92, 0x32, 0x3e, 0x22, 0x9e, 0xd5, 0x3e, 0x0b, 0x8d, 0x7d, 0xbe,
    0x3d, 0x13, 0xb1, 0x3e, 0xd6, 0x17, 0xa3, 0xbe, 0xd3, 0x73, 0xa9, 0xbd,
    0xd3, 0x9b, 0x08, 0x3d, 0xd5, 0x84, 0xc8, 0x3e, 0x53, 0x78, 0x9a, 0x3c,
    0xe5, 0x9f, 0xf1, 0xbe, 0x00, 0xac, 0x78, 0x3d, 0x76, 0x3d, 0x22, 0xbe,
    0x8b, 0x7c, 0xf4, 0x3e, 0xf8, 0xa1, 0xbc, 0x3d, 0xef, 0xae, 0x10, 0x3f,
    0x1b, 0x0f, 0xde, 0xbe, 0xdc, 0xe6, 0x02, 0xbe, 0xc2, 0x61, 0x54, 0x3e,
    0xaf, 0xba, 0xc8, 0xbe, 0x9c, 0x87, 0x11, 0x3f, 0x6b, 0xcb, 0xdc, 0x3e,
    0x94, 0x16, 0xe6, 0x3d, 0xdd, 0x2f, 0xf2, 0xbd, 0xbc, 0xe1, 0xbb, 0xbd,
    0xe7, 0xf0, 0x0f, 0x3e, 0xcc, 0xd6, 0xed, 0xbe, 0x79, 0x77, 0x61, 0x3e,
    0x5c, 0xa9, 0xf9, 0xbd, 0x60, 0xd4, 0xa4, 0xbe, 0xde, 0x3a, 0x95, 0x3e,
    0xb5, 0x4f, 0xb9, 0xbe, 0xcc, 0xf4, 0x39, 0xbe, 0x26, 0xc2, 0x3a, 0xbe,
    0xdd, 0xbf, 0x1d, 0xbf, 0x1c, 0xf3, 0xa0, 0x3e, 0xba, 0xd7, 0x33, 0x3e,
    0x0a, 0x4c, 0xe4, 0x3e, 0x08, 0x7c, 0x9d, 0xbd, 0xfa, 0x94, 0xe6, 0xbd,
    0xed, 0x93, 0x93, 0xbe, 0x77, 0x70, 0x6d, 0x3d, 0xd1, 0x28, 0x82, 0x3e,
    0x69, 0x4f, 0x9c, 0xbd, 0x81, 0xf2, 0xac, 0xbe, 0xf6, 0xb3, 0xc6, 0xbe,
    0xa6, 0xa6, 0x68, 0x3e, 0xcc, 0xb4, 0x6d, 0x3e, 0xa8, 0xb6, 0x4b, 0xbe,
    0x91, 0x3a, 0xc7, 0xbe, 0x5c, 0x2a, 0x31, 0x3f, 0xa2, 0x47, 0x82, 0xbe,
    0xd2, 0x9d, 0xb7, 0x3e, 0x9e, 0x5b, 0xfd, 0xbd, 0x94, 0x37, 0x16, 0x3c,
    0x9c, 0x4c, 0x5b, 0x3d, 0x24, 0x02, 0xd1, 0xbd, 0x9d, 0x25, 0x00, 0x3f,
    0x10, 0x67, 0x0a, 0xbe, 0x56, 0x6f, 0x1e, 0xbe, 0x4b, 0x58, 0xa9, 0xbc,
    0xbf, 0xf6, 0xe3, 0xbd, 0x84, 0xde, 0xc2, 0x3e, 0x34, 0x72, 0x8a, 0x3c,
    0x4c, 0xf2, 0xee, 0xbd, 0xbf, 0xfd, 0x0f, 0x3e, 0xee, 0x53, 0x0a, 0x3e,
    0x7f, 0x50, 0xfc, 0xbe, 0x4f, 0x5a, 0xe6, 0xbd, 0xd0, 0xc8, 0x1b, 0x3e,
    0xc0, 0x95, 0xad, 0x3e, 0x1a, 0xec, 0xc0, 0x3c, 0x92, 0x6c, 0x8d, 0x3e,
    0x7d, 0xf7, 0x19, 0x3f, 0x28, 0x27, 0x47, 0x3d, 0xe6, 0x4a, 0x32, 0xbe,
    0xbc, 0x7b, 0xfc, 0xbe, 0x2d, 0x74, 0x71, 0xbe, 0x8c, 0x55, 0x58, 0xbd,
    0x4c, 0x2d, 0x33, 0x3d, 0x88, 0x5b, 0x9b, 0x3e, 0x69, 0xb8, 0xc8, 0x3e,
    0x6a, 0x1d, 0x24, 0xbd, 0x49, 0x5b, 0xe0, 0xbb, 0x9b, 0x2e, 0xa2, 0x3d,
    0x9f, 0x27, 0x00, 0xbd, 0x26, 0x42, 0x1d, 0xbe, 0x9d, 0xf5, 0xee, 0xbd,
    0xa5, 0x57, 0x92, 0x3e, 0x67, 0x34, 0x24, 0x3f, 0x69, 0x90, 0x6c, 0xbe,
    0xbc, 0x65, 0x38, 0x3e, 0xf5, 0xc1, 0x10, 0xbd, 0x6c, 0x59, 0x74, 0x3e,
    0x1f, 0x99, 0x91, 0xbe, 0x1f, 0x87, 0x5a, 0x3e, 0x46, 0xcf, 0x0e, 0xbe,
    0xfa, 0xed, 0xca, 0xbd, 0x19, 0x51, 0xe3, 0x3e, 0x75, 0x7b, 0xcf, 0x3e,
    0x73, 0x4e, 0xb7, 0xbc, 0x9a, 0xc5, 0x26, 0xbe, 0x4e, 0xd0, 0xa9, 0x3d,
    0x1d, 0x10, 0x94, 0x3c, 0xd2, 0x38, 0xa1, 0xbc, 0x23, 0xc7, 0xed, 0xbe,
    0xd6, 0x95, 0x19, 0xbe, 0x43, 0xbf, 0xb3, 0x3c, 0x8b, 0x33, 0x26, 0xbf,
    0xfe, 0x65, 0x07, 0xbe, 0x13, 0x08, 0x96, 0x3e, 0x5c, 0xcb, 0xaa, 0x3e,
    0x0a, 0x9c, 0x6a, 0x3e, 0x66, 0x6d, 0x0e, 0xbd, 0xd7, 0xed, 0x03, 0x3f,
    0x60, 0x89, 0x26, 0xbe, 0xa9, 0xc0, 0x65, 0x3e, 0xb6, 0xb7, 0xd8, 0xbd,
    0x24, 0xd3, 0xcf, 0x3d, 0xfe, 0x45, 0xd2, 0xbe, 0x00, 0xc8, 0x69, 0xbe,
    0xe2, 0x64, 0xb4, 0xbe, 0x5a, 0x65, 0x24, 0x3e, 0xda, 0x1e, 0x91, 0xbe,
    0x12, 0x33, 0x52, 0x3d, 0xff, 0x96, 0x7b, 0xbe, 0x37, 0x3c, 0x2d, 0x3e,
    0xb1, 0xaf, 0xee, 0xbe, 0xca, 0xa8, 0x3f, 0xbe, 0xa8, 0x11, 0x88, 0xbe,
    0x9d, 0x7f, 0x0e, 0x3f, 0xd4, 0x4e, 0x61, 0x3e, 0x9a, 0x25, 0x9f, 0x3e,
    0x85, 0x1d, 0xf8, 0x3e, 0xeb, 0xbb, 0x09, 0x3b, 0x58, 0x09, 0x97, 0xbd,
    0xc0, 0x68, 0x5a, 0xbe, 0x79, 0x38, 0x62, 0xbe, 0x6a, 0xc6, 0x80, 0xbd,
    0xe9, 0x26, 0x44, 0xbe, 0x0e, 0xf5, 0x0a, 0x3e, 0x68, 0xbe, 0xee, 0x3e,
    0x74, 0xe3, 0x4b, 0xbd, 0x3d, 0xce, 0x14, 0x3e, 0x1d, 0xdf, 0x8d, 0x3e,
    0x60, 0xdc, 0xfe, 0x3c, 0xa1, 0xfb, 0xb3, 0x3b, 0xca, 0x71, 0x82, 0x3e,
    0xe6, 0x66, 0x3c, 0xbe, 0x4d, 0xfd, 0x82, 0x3d, 0xdf, 0x14, 0x8d, 0x3e,
    0x9d, 0xdc, 0x0e, 0x3e, 0x52, 0xaf, 0xd1, 0x3e, 0x67, 0xac, 0xd0, 0x3d,
    0x2f, 0xd1, 0xed, 0x3d, 0x91, 0x95, 0xb6, 0x3e, 0x15, 0x25, 0x78, 0xbe,
    0x1c, 0xef, 0xc8, 0x3d, 0xa6, 0x43, 0x66, 0x3d, 0x79, 0xa7, 0x85, 0xbe,
    0xb8, 0x4f, 0x6f, 0x3e, 0x6a, 0x2a, 0x7b, 0x3e, 0x78, 0xcf, 0x09, 0x3f,
    0xc9, 0x41, 0xda, 0xbd, 0xcc, 0x8b, 0xba, 0xbe, 0x55, 0x52, 0x6e, 0xbd,
    0xd2, 0xcf, 0x5c, 0xbe, 0x8a, 0x0f, 0xc7, 0xbb, 0x98, 0xdb, 0x13, 0xbc,
    0x1e, 0x02, 0x9b, 0x3e, 0x28, 0x96, 0xdc, 0xbd, 0xfa, 0xab, 0x16, 0xbf,
    0x67, 0x20, 0x29, 0xbe, 0x88, 0xd4, 0xb8, 0x3e, 0x75, 0xcd, 0x04, 0xbe,
    0x62, 0x1d, 0xf2, 0xbe, 0x01, 0xf6, 0x9f, 0xbe, 0x84, 0x7b, 0xa3, 0xbe,
    0x24, 0x4b, 0xc6, 0xbe, 0x15, 0x41, 0x3a, 0x3f, 0x16, 0xe1, 0x8f, 0x3e,
    0xb1, 0xff, 0x01, 0xbd, 0xf7, 0xb4, 0x96, 0x3d, 0xda, 0xfd, 0x00, 0xbf,
    0x79, 0x46, 0x44, 0x3e, 0x7d, 0x68, 0x0d, 0xbf, 0xc7, 0x63, 0x97, 0xbe,
    0xb7, 0xfd, 0x23, 0xbf, 0x15, 0x10, 0xca, 0xbe, 0x7e, 0x22, 0x9f, 0x3c,
    0x69, 0xbd, 0x2d, 0xbf, 0xed, 0x20, 0xc5, 0xbe, 0x54, 0xe5, 0x8a, 0x3e,
    0x0c, 0x23, 0x2c, 0xbf, 0x6c, 0x4c, 0x56, 0xbe, 0xb0, 0xfc, 0x8b, 0x3d,
    0x9b, 0x57, 0x98, 0x3e, 0xf4, 0xa6, 0xfd, 0xbd, 0x44, 0x76, 0x51, 0xbf,
    0x1e, 0x83, 0x6f, 0x3e, 0x04, 0x1b, 0x48, 0x3f, 0x35, 0x38, 0x95, 0x3a,
    0x2a, 0x34, 0x3c, 0x3e, 0x08, 0xde, 0xfc, 0x3e, 0x42, 0xc0, 0x41, 0x3d,
    0x00, 0xfa, 0xff, 0xff, 0x04, 0xfa, 0xff, 0xff, 0x4a, 0xfd, 0xff, 0xff,
    0x04, 0x00, 0x00, 0x00, 0x80, 0x00, 0x00, 0x00, 0xb5, 0xb7, 0x34, 0xbf,
    0x34, 0x1c, 0xf0, 0x3e, 0xe8, 0xe3, 0xab, 0xbf, 0xf5, 0x40, 0x29, 0x3f,
    0x09, 0x43, 0x1f, 0xbf, 0xda, 0x08, 0x8a, 0xbf, 0x67, 0x5e, 0x88, 0x3f,
    0xe2, 0xf6, 0x0a, 0x3e, 0xe8, 0x0d, 0x35, 0xbf, 0xf2, 0x99, 0xd0, 0x3d,
    0x72, 0xdc, 0x4f, 0x3f, 0x3c, 0x96, 0x96, 0x3e, 0xec, 0xa4, 0x1f, 0x3f,
    0x6f, 0xf6, 0xc6, 0xbe, 0x2d, 0x92, 0x81, 0x3f, 0xa2, 0x95, 0xe9, 0x3e,
    0xb3, 0x36, 0x1b, 0xbf, 0xb9, 0xeb, 0x90, 0xbf, 0x16, 0x98, 0x78, 0x3f,
    0xf9, 0x94, 0xdb, 0xbe, 0x62, 0x21, 0x73, 0x3f, 0xb4, 0xba, 0x32, 0x3f,
    0x84, 0x01, 0x0a, 0x3f, 0x17, 0xe7, 0x10, 0x3d, 0x4f, 0xd8, 0x5b, 0xbf,
    0x96, 0x08, 0x2f, 0xbf, 0x2f, 0x1f, 0x85, 0xbe, 0x37, 0xf5, 0xd4, 0x3e,
    0x77, 0x8f, 0x49, 0xbe, 0x4d, 0xe3, 0x43, 0xbe, 0xba, 0xcb, 0x27, 0xbf,
    0x8d, 0x10, 0xfa, 0x3e, 0x94, 0xfa, 0xff, 0xff, 0xda, 0xfd, 0xff, 0xff,
    0x04, 0x00, 0x00, 0x00, 0x80, 0x00, 0x00, 0x00, 0xbf, 0xdd, 0x27, 0x3e,
    0xe9, 0x1e, 0xa0, 0xbd, 0x6e, 0xa4, 0x9e, 0x3d, 0xb8, 0xb4, 0xd6, 0x3c,
    0x82, 0x25, 0x29, 0x3d, 0xaa, 0x2c, 0x50, 0x3d, 0xa4, 0x0f, 0x5d, 0x3e,
    0x3c, 0xe9, 0x8d, 0xbd, 0xed, 0x95, 0x06, 0x3d, 0xd2, 0xe3, 0x2c, 0x3d,
    0xa6, 0xd6, 0x02, 0x3d, 0x92, 0x3f, 0x95, 0xbd, 0x8e, 0x3f, 0xc5, 0xbd,
    0xbb, 0xf5, 0xdb, 0xbd, 0xd2, 0x5c, 0x4d, 0x3d, 0x8d, 0x72, 0x6e, 0xbd,
    0x4e, 0xe1, 0x3b, 0xbe, 0xe0, 0x9d, 0x4a, 0x3d, 0x96, 0xca, 0x3b, 0x3d,
    0xe8, 0x00, 0xf4, 0xbd, 0x1c, 0x60, 0x4d, 0x3d, 0xcc, 0x38, 0x16, 0x3d,
    0xd2, 0xfa, 0x06, 0xbe, 0x67, 0x36, 0x94, 0x3d, 0xe9, 0x79, 0x3c, 0x3d,
    0xe8, 0xb4, 0x78, 0xbd, 0x2e, 0xaf, 0xdc, 0x3d, 0x67, 0xe5, 0x32, 0x3e,
    0x18, 0xc3, 0xb5, 0x39, 0xad, 0x87, 0xdf, 0x3c, 0x0b, 0x27, 0x5b, 0x3e,
    0x89, 0xe2, 0xed, 0xbd, 0x66, 0xfe, 0xff, 0xff, 0x04, 0x00, 0x00, 0x00,
    0x00, 0x01, 0x00, 0x00, 0x00, 0x2d, 0xfd, 0xbd, 0x61, 0xca, 0xc8, 0xbe,
    0xe2, 0x06, 0x97, 0xb8, 0xcb, 0xf0, 0x2e, 0xbd, 0xb4, 0x2e, 0x91, 0x3d,
    0x7e, 0x2a, 0xa8, 0xbc, 0xb4, 0x04, 0xab, 0xbe, 0x0f, 0x64, 0xff, 0xb9,
    0x2d, 0xff, 0x12, 0xbf, 0x9a, 0x00, 0x80, 0xbd, 0x61, 0x9c, 0x58, 0xbd,
    0xfb, 0x45, 0x4c, 0xbb, 0xa7, 0xbe, 0xac, 0xbe, 0xee, 0xbf, 0x16, 0x3f,
    0x8f, 0x8b, 0x00, 0xbf, 0xe4, 0x3e, 0x04, 0x3f, 0xb8, 0x5a, 0x06, 0x3f,
    0xcb, 0x75, 0xf5, 0xbe, 0x5e, 0x53, 0xe2, 0x39, 0xbf, 0x5b, 0x14, 0xbf,
    0x06, 0x16, 0x8c, 0x3e, 0xb8, 0x4e, 0x3f, 0x3c, 0xf5, 0xba, 0x84, 0x3e,
    0x9f, 0x11, 0x30, 0xbe, 0xc5, 0xdf, 0xd5, 0x3d, 0x06, 0x2d, 0x13, 0x3f,
    0x4c, 0xe8, 0x07, 0xbf, 0x8e, 0xd2, 0xae, 0xbd, 0xc7, 0x47, 0x6e, 0xbd,
    0x77, 0xb4, 0xc5, 0xbe, 0xba, 0x92, 0x2a, 0x3e, 0x71, 0x14, 0x01, 0x3e,
    0x0d, 0x7d, 0x0a, 0xbe, 0x2f, 0xcf, 0xce, 0xbe, 0xec, 0x2f, 0x33, 0xba,
    0xc1, 0xc8, 0x1d, 0xbd, 0x6a, 0x9c, 0x11, 0x3d, 0xa3, 0x94, 0x15, 0xbd,
    0x38, 0x68, 0xb8, 0xbe, 0x45, 0xd6, 0x3e, 0x3b, 0xfb, 0x50, 0x18, 0xbf,
    0x22, 0x82, 0x51, 0xbd, 0x4a, 0xd6, 0x39, 0xbd, 0xd9, 0x86, 0x0a, 0xbb,
    0x0f, 0x0b, 0xb8, 0xbe, 0xd3, 0x1f, 0x2d, 0x3f, 0x7d, 0x8d, 0xf5, 0xbe,
    0x66, 0xd8, 0x19, 0x3f, 0xd0, 0x31, 0x1f, 0x3f, 0xc0, 0x03, 0xfd, 0xbe,
    0x6c, 0xd7, 0x9a, 0x38, 0x78, 0x3d, 0x16, 0xbf, 0xc8, 0xe2, 0x8d, 0x3e,
    0x8e, 0x93, 0x32, 0x3c, 0xd6, 0xd9, 0x86, 0x3e, 0x29, 0x6f, 0x5c, 0xbe,
    0x1c, 0x94, 0x06, 0x3e, 0x2a, 0x97, 0x2a, 0x3f, 0xbc, 0xac, 0x0f, 0xbf,
    0x14, 0x65, 0x10, 0xbe, 0x56, 0xc6, 0x1d, 0xbd, 0x62, 0xb8, 0xce, 0xbe,
    0xf3, 0x9e, 0x36, 0x3e, 0x22, 0x5e, 0x9d, 0x3d, 0x72, 0xff, 0xff, 0xff,
    0x04, 0x00, 0x00, 0x00, 0x80, 0x00, 0x00, 0x00, 0xfb, 0x6a, 0xb0, 0x3c,
    0x6e, 0x9f, 0x6b, 0x3d, 0x00, 0x00, 0x00, 0x00, 0xb7, 0x8c, 0xe6, 0xbd,
    0x00, 0x4c, 0x84, 0x3c, 0xff, 0x98, 0x40, 0xbe, 0x55, 0x1a, 0x2b, 0xbd,
    0x00, 0x00, 0x00, 0x00, 0xf0, 0x0a, 0xae, 0x3d, 0x8b, 0x92, 0x90, 0xbe,
    0x7c, 0x92, 0x9f, 0xbe, 0xf5, 0xf0, 0xed, 0xbc, 0x40, 0x05, 0xc9, 0x39,
    0x69, 0xac, 0x07, 0x3e, 0x5f, 0x3a, 0xbe, 0x3d, 0xd4, 0x0d, 0xb4, 0x3d,
    0x23, 0x7a, 0xf8, 0x3d, 0xfe, 0xf0, 0xa1, 0x3d, 0x00, 0x00, 0x00, 0x00,
    0xce, 0xc2, 0x43, 0x3d, 0x9f, 0xc3, 0xac, 0x3d, 0x6f, 0xcd, 0x6b, 0xbe,
    0x3e, 0xdc, 0xff, 0xbc, 0xee, 0x6d, 0x92, 0xbd, 0xe2, 0xba, 0x02, 0x3e,
    0x24, 0xee, 0x18, 0x3e, 0x60, 0xc6, 0x5e, 0x3e, 0x04, 0x2d, 0x13, 0xbd,
    0x2c, 0xa9, 0x3b, 0xbe, 0x53, 0x93, 0x26, 0x3e, 0x89, 0xe5, 0x9f, 0x3c,
    0xed, 0x89, 0x48, 0x3e, 0x00, 0x00, 0x06, 0x00, 0x08, 0x00, 0x04, 0x00,
    0x06, 0x00, 0x00, 0x00, 0x04, 0x00, 0x00, 0x00, 0x08, 0x00, 0x00, 0x00,
    0x22, 0xab, 0x19, 0x3e, 0x89, 0x43, 0x01, 0x3e, 0xd8, 0xfc, 0xff, 0xff,
    0x0c, 0x00, 0x14, 0x00, 0x04, 0x00, 0x08, 0x00, 0x0c, 0x00, 0x10, 0x00,
    0x0c, 0x00, 0x00, 0x00, 0x20, 0x00, 0x00, 0x00, 0x14, 0x00, 0x00, 0x00,
    0x08, 0x00, 0x00, 0x00, 0xc4, 0x02, 0x00, 0x00, 0x01, 0x00, 0x00, 0x00,
    0x06, 0x00, 0x00, 0x00, 0x01, 0x00, 0x00, 0x00, 0x09, 0x00, 0x00, 0x00,
    0x0a, 0x00, 0x00, 0x00, 0xc0, 0x00, 0x00, 0x00, 0xf4, 0x00, 0x00, 0x00,
    0xa4, 0x01, 0x00, 0x00, 0x28, 0x01, 0x00, 0x00, 0x18, 0x02, 0x00, 0x00,
    0x68, 0x00, 0x00, 0x00, 0x5c, 0x01, 0x00, 0x00, 0x58, 0x02, 0x00, 0x00,
    0xc4, 0x01, 0x00, 0x00, 0x04, 0x00, 0x00, 0x00, 0xc2, 0xfd, 0xff, 0xff,
    0x10, 0x00, 0x00, 0x00, 0x0a, 0x00, 0x00, 0x00, 0x14, 0x00, 0x00, 0x00,
    0x28, 0x00, 0x00, 0x00, 0x02, 0x00, 0x00, 0x00, 0x01, 0x00, 0x00, 0x00,
    0x01, 0x00, 0x00, 0x00, 0x0b, 0x00, 0x00, 0x00, 0x64, 0x65, 0x6e, 0x73,
    0x65, 0x5f, 0x69, 0x6e, 0x70, 0x75, 0x74, 0x00, 0x08, 0x00, 0x0c, 0x00,
    0x04, 0x00, 0x08, 0x00, 0x08, 0x00, 0x00, 0x00, 0x10, 0x00, 0x00, 0x00,
    0x04, 0x00, 0x00, 0x00, 0x01, 0x00, 0x00, 0x00, 0x00, 0x00, 0x7f, 0x43,
    0x01, 0x00, 0x00, 0x00, 0x00, 0x00, 0x00, 0x00, 0x16, 0xfe, 0xff, 0xff,
    0x10, 0x00, 0x00, 0x00, 0x09, 0x00, 0x00, 0x00, 0x14, 0x00, 0x00, 0x00,
    0x30, 0x00, 0x00, 0x00, 0x02, 0x00, 0x00, 0x00, 0x20, 0x00, 0x00, 0x00,
    0x20, 0x00, 0x00, 0x00, 0x18, 0x00, 0x00, 0x00, 0x64, 0x65, 0x6e, 0x73,
    0x65, 0x5f, 0x31, 0x2f, 0x6b, 0x65, 0x72, 0x6e, 0x65, 0x6c, 0x2f, 0x74,
    0x72, 0x61, 0x6e, 0x73, 0x70, 0x6f, 0x73, 0x65, 0x00, 0x00, 0x00, 0x00,
    0xcc, 0xfd, 0xff, 0xff, 0x5a, 0xfe, 0xff, 0xff, 0x10, 0x00, 0x00, 0x00,
    0x08, 0x00, 0x00, 0x00, 0x14, 0x00, 0x00, 0x00, 0x24, 0x00, 0x00, 0x00,
    0x02, 0x00, 0x00, 0x00, 0x01, 0x00, 0x00, 0x00, 0x20, 0x00, 0x00, 0x00,
    0x0f, 0x00, 0x00, 0x00, 0x61, 0x63, 0x74, 0x69, 0x76, 0x61, 0x74, 0x69,
    0x6f, 0x6e, 0x2f, 0x52, 0x65, 0x6c, 0x75, 0x00, 0x04, 0xfe, 0xff, 0xff,
    0x92, 0xfe, 0xff, 0xff, 0x10, 0x00, 0x00, 0x00, 0x07, 0x00, 0x00, 0x00,
    0x14, 0x00, 0x00, 0x00, 0x28, 0x00, 0x00, 0x00, 0x02, 0x00, 0x00, 0x00,
    0x01, 0x00, 0x00, 0x00, 0x20, 0x00, 0x00, 0x00, 0x11, 0x00, 0x00, 0x00,
    0x61, 0x63, 0x74, 0x69, 0x76, 0x61, 0x74, 0x69, 0x6f, 0x6e, 0x5f, 0x31,
    0x2f, 0x52, 0x65, 0x6c, 0x75, 0x00, 0x00, 0x00, 0x40, 0xfe, 0xff, 0xff,
    0xce, 0xfe, 0xff, 0xff, 0x10, 0x00, 0x00, 0x00, 0x06, 0x00, 0x00, 0x00,
    0x14, 0x00, 0x00, 0x00, 0x2c, 0x00, 0x00, 0x00, 0x02, 0x00, 0x00, 0x00,
    0x20, 0x00, 0x00, 0x00, 0x01, 0x00, 0x00, 0x00, 0x16, 0x00, 0x00, 0x00,
    0x64, 0x65, 0x6e, 0x73, 0x65, 0x2f, 0x6b, 0x65, 0x72, 0x6e, 0x65, 0x6c,
    0x2f, 0x74, 0x72, 0x61, 0x6e, 0x73, 0x70, 0x6f, 0x73, 0x65, 0x00, 0x00,
    0x80, 0xfe, 0xff, 0xff, 0x0e, 0xff, 0xff, 0xff, 0x10, 0x00, 0x00, 0x00,
    0x05, 0x00, 0x00, 0x00, 0x14, 0x00, 0x00, 0x00, 0x24, 0x00, 0x00, 0x00,
    0x02, 0x00, 0x00, 0x00, 0x01, 0x00, 0x00, 0x00, 0x02, 0x00, 0x00, 0x00,
    0x0f, 0x00, 0x00, 0x00, 0x64, 0x65, 0x6e, 0x73, 0x65, 0x5f, 0x32, 0x2f,
    0x42, 0x69, 0x61, 0x73, 0x41, 0x64, 0x64, 0x00, 0xb8, 0xfe, 0xff, 0xff,
    0x46, 0xff, 0xff, 0xff, 0x10, 0x00, 0x00, 0x00, 0x04, 0x00, 0x00, 0x00,
    0x10, 0x00, 0x00, 0x00, 0x24, 0x00, 0x00, 0x00, 0x01, 0x00, 0x00, 0x00,
    0x20, 0x00, 0x00, 0x00, 0x11, 0x00, 0x00, 0x00, 0x64, 0x65, 0x6e, 0x73,
    0x65, 0x2f, 0x4d, 0x61, 0x74, 0x4d, 0x75, 0x6c, 0x5f, 0x62, 0x69, 0x61,
    0x73, 0x00, 0x00, 0x00, 0xf0, 0xfe, 0xff, 0xff, 0x7e, 0xff, 0xff, 0xff,
    0x10, 0x00, 0x00, 0x00, 0x03, 0x00, 0x00, 0x00, 0x14, 0x00, 0x00, 0x00,
    0x30, 0x00, 0x00, 0x00, 0x02, 0x00, 0x00, 0x00, 0x02, 0x00, 0x00, 0x00,
    0x20, 0x00, 0x00, 0x00, 0x18, 0x00, 0x00, 0x00, 0x64, 0x65, 0x6e, 0x73,
    0x65, 0x5f, 0x32, 0x2f, 0x6b, 0x65, 0x72, 0x6e, 0x65, 0x6c, 0x2f, 0x74,
    0x72, 0x61, 0x6e, 0x73, 0x70, 0x6f, 0x73, 0x65, 0x00, 0x00, 0x00, 0x00,
    0x34, 0xff, 0xff, 0xff, 0xc2, 0xff, 0xff, 0xff, 0x10, 0x00, 0x00, 0x00,
    0x02, 0x00, 0x00, 0x00, 0x10, 0x00, 0x00, 0x00, 0x28, 0x00, 0x00, 0x00,
    0x01, 0x00, 0x00, 0x00, 0x20, 0x00, 0x00, 0x00, 0x13, 0x00, 0x00, 0x00,
    0x64, 0x65, 0x6e, 0x73, 0x65, 0x5f, 0x31, 0x2f, 0x4d, 0x61, 0x74, 0x4d,
    0x75, 0x6c, 0x5f, 0x62, 0x69, 0x61, 0x73, 0x00, 0x04, 0x00, 0x06, 0x00,
    0x04, 0x00, 0x00, 0x00, 0x00, 0x00, 0x0e, 0x00, 0x14, 0x00, 0x04, 0x00,
    0x00, 0x00, 0x08, 0x00, 0x0c, 0x00, 0x10, 0x00, 0x0e, 0x00, 0x00, 0x00,
    0x10, 0x00, 0x00, 0x00, 0x01, 0x00, 0x00, 0x00, 0x10, 0x00, 0x00, 0x00,
    0x24, 0x00, 0x00, 0x00, 0x01, 0x00, 0x00, 0x00, 0x02, 0x00, 0x00, 0x00,
    0x13, 0x00, 0x00, 0x00, 0x64, 0x65, 0x6e, 0x73, 0x65, 0x5f, 0x32, 0x2f,
    0x4d, 0x61, 0x74, 0x4d, 0x75, 0x6c, 0x5f, 0x62, 0x69, 0x61, 0x73, 0x00,
    0xb8, 0xff, 0xff, 0xff, 0x03, 0x00, 0x00, 0x00, 0x98, 0x00, 0x00, 0x00,
    0x44, 0x00, 0x00, 0x00, 0x04, 0x00, 0x00, 0x00, 0x88, 0xff, 0xff, 0xff,
    0x00, 0x00, 0x00, 0x08, 0x10, 0x00, 0x00, 0x00, 0x1c, 0x00, 0x00, 0x00,
    0x28, 0x00, 0x00, 0x00, 0x1c, 0x00, 0x00, 0x00, 0x03, 0x00, 0x00, 0x00,
    0x01, 0x00, 0x00, 0x00, 0x08, 0x00, 0x00, 0x00, 0x07, 0x00, 0x00, 0x00,
    0x01, 0x00, 0x00, 0x00, 0x06, 0x00, 0x00, 0x00, 0x00, 0x00, 0x00, 0x00,
    0x04, 0x00, 0x04, 0x00, 0x04, 0x00, 0x00, 0x00, 0xc4, 0xff, 0xff, 0xff,
    0x00, 0x00, 0x00, 0x08, 0x10, 0x00, 0x00, 0x00, 0x1c, 0x00, 0x00, 0x00,
    0x24, 0x00, 0x00, 0x00, 0x1c, 0x00, 0x00, 0x00, 0x03, 0x00, 0x00, 0x00,
    0x00, 0x00, 0x00, 0x00, 0x05, 0x00, 0x00, 0x00, 0x04, 0x00, 0x00, 0x00,
    0x01, 0x00, 0x00, 0x00, 0x01, 0x00, 0x00, 0x00, 0x00, 0x00, 0x00, 0x00,
    0x8e, 0xff, 0xff, 0xff, 0x00, 0x00, 0x00, 0x01, 0x14, 0x00, 0x18, 0x00,
    0x00, 0x00, 0x08, 0x00, 0x0c, 0x00, 0x07, 0x00, 0x10, 0x00, 0x00, 0x00,
    0x00, 0x00, 0x14, 0x00, 0x14, 0x00, 0x00, 0x00, 0x00, 0x00, 0x00, 0x08,
    0x10, 0x00, 0x00, 0x00, 0x1c, 0x00, 0x00, 0x00, 0x24, 0x00, 0x00, 0x00,
    0x1c, 0x00, 0x00, 0x00, 0x03, 0x00, 0x00, 0x00, 0x09, 0x00, 0x00, 0x00,
    0x03, 0x00, 0x00, 0x00, 0x02, 0x00, 0x00, 0x00, 0x01, 0x00, 0x00, 0x00,
    0x00, 0x00, 0x00, 0x00, 0x00, 0x00, 0x00, 0x00, 0xde, 0xff, 0xff, 0xff,
    0x00, 0x00, 0x00, 0x01, 0x01, 0x00, 0x00, 0x00, 0x04, 0x00, 0x00, 0x00,
    0xfa, 0xff, 0xff, 0xff, 0x00, 0x09, 0x06, 0x00, 0x06, 0x00, 0x05, 0x00,
    0x06, 0x00, 0x00, 0x00, 0x00, 0x09, 0x06, 0x00, 0x08, 0x00, 0x07, 0x00,
    0x06, 0x00, 0x00, 0x00, 0x00, 0x00, 0x00, 0x09
};
const int rl_model_len = 5960;

#endif 

#ifdef A2C_p_1 
const unsigned char rl_model[] DATA_ALIGN_ATTRIBUTE = {
	0x18, 0x00, 0x00, 0x00, 0x54, 0x46, 0x4c, 0x33, 0x00, 0x00, 0x0e, 0x00, 
	0x18, 0x00, 0x04, 0x00, 0x08, 0x00, 0x0c, 0x00, 0x10, 0x00, 0x14, 0x00, 
	0x0e, 0x00, 0x00, 0x00, 0x03, 0x00, 0x00, 0x00, 0x00, 0x17, 0x00, 0x00, 
	0x0c, 0x00, 0x00, 0x00, 0x10, 0x00, 0x00, 0x00, 0x20, 0x00, 0x00, 0x00, 
	0x01, 0x00, 0x00, 0x00, 0x40, 0x13, 0x00, 0x00, 0x0f, 0x00, 0x00, 0x00, 
	0x54, 0x4f, 0x43, 0x4f, 0x20, 0x43, 0x6f, 0x6e, 0x76, 0x65, 0x72, 0x74, 
	0x65, 0x64, 0x2e, 0x00, 0x0b, 0x00, 0x00, 0x00, 0x14, 0x13, 0x00, 0x00, 
	0xfc, 0x12, 0x00, 0x00, 0x64, 0x12, 0x00, 0x00, 0x54, 0x11, 0x00, 0x00, 
	0xc4, 0x10, 0x00, 0x00, 0xbc, 0x10, 0x00, 0x00, 0x2c, 0x10, 0x00, 0x00, 
	0x24, 0x10, 0x00, 0x00, 0x1c, 0x10, 0x00, 0x00, 0x0c, 0x00, 0x00, 0x00, 
	0x04, 0x00, 0x00, 0x00, 0xf0, 0xe9, 0xff, 0xff, 0x36, 0xed, 0xff, 0xff, 
	0x04, 0x00, 0x00, 0x00, 0x00, 0x10, 0x00, 0x00, 0x6e, 0x70, 0x49, 0x3e, 
	0xa7, 0xbd, 0xa2, 0xbd, 0xe8, 0x41, 0x46, 0xbe, 0xd0, 0x6b, 0x19, 0x3f, 
	0xcc, 0x0b, 0x39, 0x3e, 0xc3, 0xe3, 0x0c, 0x3e, 0xcb, 0x71, 0x9c, 0x3d, 
	0xd7, 0x8c, 0xd0, 0x3d, 0xe3, 0x28, 0xfd, 0x3e, 0xaa, 0x8a, 0x9a, 0x3e, 
	0x54, 0xd1, 0x27, 0x3e, 0x77, 0x54, 0x5e, 0xbd, 0xd9, 0xdf, 0xf8, 0xbd, 
	0xc5, 0xae, 0x89, 0xbd, 0x2d, 0xf9, 0xdb, 0xbd, 0x6a, 0xe9, 0xf4, 0xbe, 
	0x6a, 0x00, 0x14, 0xbf, 0x02, 0x4a, 0xdc, 0xbc, 0x3f, 0x00, 0xaa, 0x3d, 
	0xb3, 0xd6, 0x02, 0xbf, 0xc7, 0x46, 0x0b, 0x3e, 0xaa, 0x5e, 0x46, 0xbd, 
	0xe6, 0x31, 0xba, 0xbe, 0x11, 0x62, 0xe7, 0x3d, 0xda, 0xb3, 0x32, 0x3f, 
	0xcc, 0xd1, 0xc2, 0x3e, 0x9e, 0xc5, 0x26, 0x3d, 0x9f, 0x7e, 0x1b, 0x3d, 
	0xed, 0x4c, 0x92, 0x3e, 0xf2, 0x29, 0xc3, 0x3d, 0x6c, 0xdf, 0xb2, 0x3e, 
	0x2c, 0xb6, 0xee, 0xbe, 0x55, 0x56, 0x77, 0x3e, 0x44, 0x75, 0xca, 0xbe, 
	0x13, 0xe3, 0x07, 0x3f, 0x19, 0x2f, 0x96, 0x3d, 0x3e, 0x75, 0xbd, 0x3c, 
	0xbe, 0x68, 0xf6, 0x3e, 0x92, 0x02, 0x94, 0x3d, 0x46, 0x73, 0x67, 0xbe, 
	0xa1, 0xe8, 0xa6, 0x3e, 0x6c, 0x60, 0xdd, 0xbd, 0x17, 0xbd, 0x50, 0xbd, 
	0xf7, 0x3a, 0x2c, 0xbd, 0x8f, 0x4a, 0x9c, 0xbe, 0xd2, 0xb7, 0x88, 0xbe, 
	0x52, 0xc8, 0x2d, 0xbf, 0x9f, 0x05, 0xb7, 0xbd, 0x77, 0x41, 0xf7, 0x3e, 
	0x47, 0xf1, 0x4f, 0x3e, 0x7b, 0x8e, 0x8e, 0xbe, 0xb5, 0x74, 0x24, 0xbe, 
	0x57, 0x35, 0x1e, 0xbf, 0x1d, 0xff, 0x84, 0xbd, 0x81, 0x00, 0xd6, 0xbd, 
	0x84, 0x29, 0x3d, 0x3f, 0x70, 0xe4, 0xf3, 0xbd, 0x6f, 0xb8, 0x88, 0x3e, 
	0x25, 0x5a, 0xc0, 0x3e, 0xd8, 0xb5, 0xc6, 0xbe, 0xf2, 0x38, 0x07, 0x3e, 
	0x50, 0x4a, 0xe6, 0x3c, 0xd1, 0x16, 0x55, 0x3d, 0xc8, 0x3f, 0xc2, 0xbd, 
	0xf7, 0x1a, 0x5e, 0xbe, 0x70, 0x90, 0x0c, 0x3d, 0xa6, 0x2a, 0x27, 0xbf, 
	0x62, 0xb0, 0x05, 0x3f, 0x5a, 0xb4, 0xd2, 0xbd, 0xc9, 0x7f, 0xcb, 0xbd, 
	0x2e, 0xc7, 0x4e, 0xbd, 0xd2, 0x0a, 0x7c, 0xbc, 0xca, 0x93, 0xc0, 0x3e, 
	0x6a, 0xb0, 0xea, 0x3e, 0x81, 0x89, 0x77, 0xbe, 0x73, 0x5c, 0x05, 0xbe, 
	0xad, 0xe6, 0xcb, 0xbd, 0xc6, 0x76, 0x1f, 0xbd, 0xa1, 0xa8, 0xb2, 0xbe, 
	0x03, 0x5a, 0xf7, 0x3d, 0xf3, 0x87, 0x6a, 0xbe, 0xf9, 0x4c, 0x69, 0xbf, 
	0x26, 0x01, 0xf3, 0xbe, 0x82, 0xee, 0x7a, 0x3e, 0x4d, 0xd6, 0x5d, 0xbf, 
	0x90, 0xd3, 0x06, 0xbf, 0x49, 0x95, 0x44, 0xbe, 0xc6, 0xd1, 0xf3, 0xbc, 
	0x33, 0x43, 0xe5, 0xbe, 0x25, 0x5c, 0x0d, 0xbf, 0x29, 0xca, 0x2c, 0x3f, 
	0x76, 0x51, 0x67, 0xbd, 0xc0, 0x9e, 0x43, 0x3e, 0x26, 0xf7, 0xf2, 0x3e, 
	0x28, 0xe8, 0xdd, 0xbb, 0x59, 0x4a, 0x3c, 0x3e, 0x6c, 0x09, 0x0d, 0x3d, 
	0x9f, 0xe4, 0x4c, 0x3e, 0xd0, 0xed, 0xda, 0xbe, 0x40, 0x33, 0x28, 0xbe, 
	0x17, 0x4a, 0x95, 0x3e, 0xda, 0x62, 0x7f, 0x3e, 0x40, 0x75, 0xb5, 0xbd, 
	0x6a, 0xe8, 0x56, 0xbe, 0x49, 0x00, 0xce, 0xbe, 0x8d, 0x9b, 0x94, 0x3e, 
	0x30, 0x79, 0xfd, 0x3d, 0x81, 0x97, 0x2c, 0x3e, 0xce, 0xa4, 0x52, 0x3c, 
	0x9c, 0x8e, 0x0c, 0xbf, 0x71, 0x66, 0xd3, 0xbc, 0x6b, 0xe9, 0x66, 0xbe, 
	0x36, 0x1c, 0x87, 0x3c, 0x3d, 0x5e, 0x4b, 0x3e, 0x5a, 0xa6, 0xc7, 0x3e, 
	0xe1, 0xaa, 0x85, 0xbe, 0x38, 0x6b, 0x90, 0xbe, 0xa3, 0x98, 0x29, 0xbe, 
	0x41, 0x90, 0xd8, 0x3d, 0x03, 0x5e, 0xda, 0xbc, 0x13, 0x9d, 0x49, 0x3e, 
	0x9f, 0x2f, 0x18, 0xbe, 0x30, 0x09, 0x08, 0x3d, 0xe1, 0x93, 0x93, 0x3d, 
	0x2e, 0x92, 0xe4, 0x3c, 0xbf, 0x77, 0xda, 0xbe, 0x6f, 0xce, 0x01, 0xbf, 
	0x91, 0x7b, 0x2e, 0x3e, 0xd9, 0x2c, 0x32, 0xbe, 0x4c, 0x13, 0x24, 0x3f, 
	0x6d, 0x01, 0x3b, 0x3e, 0xef, 0x86, 0x06, 0xbe, 0x0e, 0x57, 0x9f, 0xbb, 
	0x4d, 0xfe, 0x89, 0x3e, 0x06, 0x03, 0x0f, 0xbe, 0xb1, 0x4d, 0x9f, 0xbe, 
	0x9f, 0xa7, 0xd9, 0x3d, 0x8b, 0xd2, 0xa9, 0x3d, 0xc9, 0xfe, 0xa7, 0x3c, 
	0xa1, 0x64, 0x5a, 0x3e, 0x40, 0xba, 0x2c, 0xbf, 0xd2, 0x78, 0x8d, 0xbd, 
	0xe7, 0x62, 0xad, 0x3e, 0x7f, 0x6c, 0xba, 0xbe, 0x90, 0x19, 0xdb, 0xbe, 
	0xab, 0xe6, 0x16, 0xbe, 0x17, 0x11, 0x97, 0x3e, 0xf3, 0xb6, 0x23, 0xbe, 
	0xbe, 0x1b, 0x70, 0x3e, 0xab, 0xe1, 0x87, 0x3d, 0x24, 0x99, 0xc9, 0xbe, 
	0xa8, 0x7a, 0x52, 0x3d, 0xf9, 0x29, 0x8b, 0xbe, 0xbb, 0x5a, 0x78, 0xbd, 
	0xc4, 0xd6, 0xab, 0x3c, 0x24, 0x9f, 0xb2, 0x3d, 0x42, 0xb3, 0x54, 0xbb, 
	0x22, 0x36, 0xfe, 0x3e, 0x59, 0x70, 0x0b, 0xbd, 0x95, 0x74, 0x2f, 0xbf, 
	0x71, 0x14, 0xa7, 0x3e, 0xd2, 0x60, 0xb2, 0x3e, 0xa7, 0x5d, 0xbc, 0x3e, 
	0x9f, 0xc4, 0x50, 0x3e, 0xc2, 0xb1, 0x20, 0x3e, 0x7c, 0xbd, 0x24, 0xbc, 
	0x0d, 0x0e, 0xed, 0xbe, 0xe4, 0xa4, 0x86, 0xbe, 0x38, 0xd6, 0xc3, 0xbd, 
	0xbf, 0x58, 0x1c, 0xbf, 0x33, 0xf1, 0x69, 0xbe, 0x6b, 0x7c, 0xaa, 0x3d, 
	0x60, 0x7e, 0x08, 0x3f, 0xb5, 0x15, 0x6b, 0xbe, 0x9d, 0xfe, 0x23, 0x3e, 
	0xe0, 0x5e, 0x80, 0x3e, 0xcd, 0x40, 0xad, 0x3e, 0xef, 0x0e, 0xd8, 0x3e, 
	0x44, 0xf0, 0xc7, 0x3e, 0x0e, 0x25, 0xaf, 0x3e, 0x60, 0xb4, 0xec, 0x3e, 
	0x2f, 0x4b, 0x45, 0x3e, 0xc6, 0x1e, 0x24, 0xbd, 0xf6, 0xf2, 0x85, 0x3e, 
	0x69, 0xe5, 0x3c, 0x3f, 0xe1, 0x25, 0x9a, 0x3d, 0xf2, 0x0d, 0x8f, 0x3c, 
	0x1c, 0xca, 0x55, 0xbe, 0x35, 0xe2, 0xb3, 0xbd, 0x86, 0x67, 0x5b, 0x3e, 
	0x53, 0xc7, 0xb7, 0xbd, 0xa5, 0x20, 0xb3, 0x3e, 0x7b, 0x07, 0x21, 0x3e, 
	0xa0, 0x22, 0x42, 0xbe, 0x94, 0x84, 0x6a, 0x3e, 0x80, 0x37, 0x96, 0x3e, 
	0x38, 0xed, 0x5d, 0x3d, 0xfe, 0x7b, 0xce, 0x3e, 0x42, 0xf6, 0x9f, 0xbe, 
	0x81, 0x02, 0x5d, 0x3c, 0xf4, 0x59, 0x2f, 0xbe, 0x48, 0x53, 0x16, 0xbe, 
	0xe9, 0x87, 0xcf, 0x3e, 0x68, 0x52, 0x78, 0xbd, 0x4e, 0x83, 0x02, 0xbe, 
	0x76, 0x91, 0x65, 0x3e, 0xa4, 0x87, 0x88, 0x3c, 0xde, 0xfa, 0xd1, 0x3e, 
	0x8f, 0x43, 0x5a, 0xbb, 0xac, 0x5f, 0x18, 0x3f, 0x4c, 0x5d, 0x1a, 0x3e, 
	0xc2, 0x16, 0x16, 0x3b, 0x2e, 0xc8, 0xe1, 0xbe, 0x20, 0x2a, 0x91, 0x3d, 
	0x1c, 0x9f, 0xb8, 0x3e, 0x93, 0x31, 0x21, 0xbd, 0x87, 0x1a, 0xa7, 0x3e, 
	0xb2, 0xa7, 0xdc, 0xbe, 0xd4, 0x99, 0xa9, 0x3d, 0x51, 0x95, 0xd8, 0x3c, 
	0x7a, 0x20, 0x0c, 0x3e, 0x94, 0xd8, 0x8e, 0x3e, 0x11, 0x18, 0x5f, 0x3e, 
	0xa6, 0x8b, 0xd1, 0xbe, 0x7c, 0xd9, 0x6a, 0xbd, 0xb8, 0x79, 0xbb, 0xbe, 
	0xdc, 0x19, 0x3a, 0xbe, 0x25, 0x37, 0x00, 0x3e, 0x26, 0x97, 0xad, 0xbc, 
	0xf2, 0x75, 0x8d, 0x3e, 0x5c, 0xaa, 0x5a, 0xbe, 0x16, 0x14, 0xfd, 0x3d, 
	0xb1, 0x86, 0xcc, 0x3e, 0xfe, 0x52, 0x4d, 0xbe, 0xcc, 0xcc, 0xde, 0xbe, 
	0xfe, 0x40, 0x81, 0x3e, 0xab, 0x71, 0x45, 0xbe, 0x89, 0xf6, 0x2b, 0xbd, 
	0x1a, 0x4d, 0x91, 0x3d, 0x27, 0x08, 0x6c, 0x3e, 0x72, 0x0d, 0xd1, 0xbd, 
	0x3b, 0x2a, 0xfa, 0x3d, 0x5b, 0x37, 0x12, 0x3e, 0x5b, 0xba, 0x59, 0xbd, 
	0x1e, 0xa3, 0x3b, 0xbe, 0x3c, 0x9e, 0xc3, 0xba, 0x9c, 0x4d, 0x06, 0xbf, 
	0xe4, 0xa1, 0x7b, 0x3d, 0x13, 0x97, 0x3e, 0xbe, 0x9d, 0x94, 0xfd, 0xbe, 
	0x5e, 0xd2, 0x04, 0xbf, 0xa2, 0x6a, 0x00, 0xbd, 0x5a, 0xeb, 0xd5, 0x3d, 
	0x14, 0x0d, 0xdd, 0xbe, 0x0f, 0x54, 0xb0, 0x3d, 0x1e, 0x2b, 0xd0, 0xbd, 
	0xbe, 0x37, 0x89, 0x3d, 0xa0, 0xbb, 0xfa, 0x3c, 0x21, 0x61, 0x7c, 0x3f, 
	0xba, 0x97, 0x46, 0x3e, 0x61, 0x71, 0xf3, 0x3d, 0xc7, 0x87, 0x25, 0x3f, 
	0x70, 0x8f, 0xbd, 0xbc, 0x71, 0xff, 0xa9, 0xbe, 0xc7, 0x7a, 0xa6, 0x3e, 
	0x79, 0x17, 0x87, 0x3d, 0x05, 0xf2, 0x04, 0xbf, 0xfd, 0xe4, 0xae, 0xbe, 
	0x86, 0x02, 0x4c, 0x3e, 0x62, 0x5f, 0x38, 0xbe, 0x4b, 0xee, 0x0f, 0xbf, 
	0x07, 0xae, 0x72, 0xbe, 0xde, 0x4a, 0x0d, 0xbf, 0xa7, 0xc7, 0x06, 0x3f, 
	0xaf, 0xcc, 0x0f, 0xbe, 0xbd, 0xf9, 0x76, 0xbe, 0xae, 0xb5, 0x65, 0xbe, 
	0x4d, 0x39, 0x0e, 0xbe, 0xee, 0xa9, 0x0d, 0x3e, 0xf3, 0x20, 0x97, 0xbe, 
	0xfa, 0x61, 0x0e, 0x3e, 0xb0, 0xb3, 0x9d, 0xbe, 0x8e, 0x33, 0xf7, 0x3e, 
	0x5a, 0x16, 0x0f, 0xbe, 0xf4, 0xfa, 0xe5, 0xbb, 0x20, 0xe3, 0x97, 0xbe, 
	0xcc, 0x39, 0x2f, 0x3f, 0x47, 0x46, 0x11, 0x3d, 0x19, 0x13, 0x88, 0xbd, 
	0x75, 0x25, 0x1b, 0x3d, 0x38, 0x75, 0x0f, 0x3f, 0xdb, 0xca, 0xef, 0x3d, 
	0xfe, 0x20, 0x1b, 0x3c, 0xc0, 0x05, 0x88, 0x3e, 0x8b, 0x6f, 0xdd, 0xbe, 
	0x93, 0xb4, 0x44, 0x3e, 0x92, 0xa9, 0xa8, 0x3e, 0x7a, 0x61, 0x8a, 0x3e, 
	0x88, 0xf5, 0xa9, 0x3e, 0x9c, 0xb7, 0x25, 0x3f, 0x00, 0xbd, 0x36, 0x3d, 
	0x6f, 0x54, 0x54, 0xbd, 0x0e, 0xbf, 0xa6, 0xbe, 0x1a, 0xc7, 0x9c, 0x3e, 
	0xfd, 0x09, 0xd4, 0x3e, 0x70, 0x41, 0xb7, 0x3e, 0x18, 0x0f, 0xff, 0xbb, 
	0x72, 0x07, 0x3d, 0x3d, 0x71, 0x1a, 0x9f, 0x3e, 0xca, 0xde, 0x1c, 0xbe, 
	0xce, 0xb2, 0xd3, 0xbd, 0x60, 0x11, 0x1b, 0xbe, 0x76, 0xbc, 0x8a, 0x3e, 
	0xaa, 0xb5, 0x45, 0x3e, 0xc0, 0x13, 0x98, 0x3d, 0xb2, 0xff, 0x18, 0x3e, 
	0x2c, 0x8d, 0x2c, 0xbf, 0xfc, 0x57, 0xd8, 0xbd, 0x4f, 0x40, 0x7e, 0xbd, 
	0x1d, 0x60, 0x67, 0x3e, 0xaa, 0x3b, 0xdc, 0x3d, 0xc9, 0x14, 0xfa, 0x3e, 
	0x55, 0x8c, 0x79, 0xbd, 0xa7, 0x40, 0xf0, 0x3b, 0x19, 0xdc, 0x41, 0x3e, 
	0x92, 0x38, 0xc7, 0x3e, 0xa9, 0xaf, 0x6f, 0x3c, 0xd1, 0x74, 0x91, 0xbe, 
	0xd3, 0xd5, 0xea, 0x3e, 0x9b, 0x2b, 0xab, 0xbe, 0x14, 0x79, 0x13, 0x3e, 
	0x64, 0xf2, 0x84, 0xbe, 0x2c, 0x77, 0x8e, 0x3e, 0x92, 0xf0, 0x4a, 0xbe, 
	0x40, 0xe3, 0x29, 0x3f, 0x12, 0xc3, 0xcb, 0x3e, 0x45, 0x0a, 0x28, 0x3f, 
	0xca, 0x03, 0x4d, 0x3f, 0xb4, 0x06, 0x63, 0xbd, 0x9c, 0x7a, 0x95, 0x3e, 
	0x9e, 0xe9, 0x0a, 0x3e, 0x89, 0x6d, 0x2d, 0x3e, 0xd4, 0xb4, 0x08, 0x3f, 
	0x92, 0x56, 0x82, 0xbe, 0x98, 0x8b, 0xce, 0x3d, 0x1d, 0xc3, 0x16, 0x3f, 
	0xb0, 0xf5, 0xb3, 0xbe, 0xf5, 0xe8, 0x48, 0x3e, 0x1f, 0x50, 0xe2, 0xbe, 
	0x66, 0x1d, 0x4a, 0xbe, 0x82, 0x81, 0x98, 0x3d, 0xef, 0xfa, 0xcb, 0x3e, 
	0xe1, 0x5b, 0x0a, 0xbe, 0xf3, 0x63, 0xb7, 0x3d, 0xd1, 0xac, 0xd2, 0xbe, 
	0x3d, 0xe8, 0xc1, 0xbd, 0x1d, 0x13, 0xef, 0xbd, 0xc3, 0x48, 0xf1, 0x3e, 
	0xf1, 0x69, 0xb0, 0x3d, 0x91, 0xe7, 0x71, 0xbe, 0x20, 0x7c, 0x06, 0xbe, 
	0xfe, 0xe0, 0x99, 0xbe, 0x2d, 0x73, 0x0a, 0x3e, 0x39, 0xd8, 0xbe, 0x3e, 
	0x96, 0xd9, 0x23, 0x3e, 0xd8, 0x59, 0xb3, 0x3e, 0x21, 0xb4, 0x1f, 0x3e, 
	0x3e, 0x0b, 0x4b, 0xbd, 0x29, 0x63, 0x96, 0x3d, 0xa4, 0x92, 0x17, 0xbe, 
	0x92, 0xe4, 0xfc, 0xbe, 0x9f, 0x11, 0xde, 0x3d, 0x7d, 0xa3, 0xb4, 0x3e, 
	0xd0, 0xdb, 0xcd, 0xbe, 0x8d, 0x8d, 0xfe, 0x3d, 0xc2, 0x64, 0x9d, 0x3e, 
	0xc9, 0x47, 0x38, 0x3e, 0x94, 0x22, 0x4b, 0xbe, 0x01, 0x55, 0x8b, 0x3e, 
	0x61, 0x2b, 0x78, 0xbe, 0x84, 0xb2, 0xc5, 0xbd, 0x38, 0xc9, 0xae, 0xbe, 
	0x03, 0xdd, 0x3b, 0x3e, 0xca, 0x9d, 0xeb, 0xbd, 0x58, 0x41, 0xd6, 0xbb, 
	0x40, 0x35, 0xe6, 0xbd, 0xf3, 0x02, 0x24, 0x3d, 0x09, 0x54, 0x5b, 0xbe, 
	0x2d, 0x6f, 0xd3, 0x3e, 0xf0, 0x99, 0x78, 0x3e, 0xfd, 0x91, 0x11, 0xbd, 
	0xc0, 0x77, 0xf8, 0x3e, 0x1c, 0xd0, 0xc5, 0x3d, 0x66, 0x03, 0x8a, 0xbe, 
	0x2c, 0xb7, 0x9b, 0x3d, 0xa3, 0x4f, 0xda, 0x3d, 0x48, 0xe9, 0xf3, 0x3d, 
	0x46, 0x5e, 0x07, 0x3e, 0x25, 0x78, 0x88, 0x3e, 0xf3, 0x24, 0x15, 0xbf, 
	0xc5, 0xcc, 0x93, 0xbe, 0x6d, 0x70, 0x12, 0x3f, 0x96, 0x60, 0xd4, 0xbd, 
	0xb0, 0xc0, 0xc5, 0xbe, 0x08, 0x2e, 0x3a, 0xbe, 0x91, 0xfd, 0x9a, 0x3e, 
	0xf6, 0x83, 0x03, 0xbf, 0x66, 0xa4, 0xb7, 0x3c, 0xfe, 0x6c, 0x12, 0xbd, 
	0x6c, 0x30, 0xd1, 0xbd, 0x81, 0x9e, 0xd2, 0x3e, 0x02, 0x82, 0x00, 0xbe, 
	0x2e, 0x2b, 0x70, 0xbe, 0x73, 0xee, 0xb7, 0x3e, 0x67, 0xb5, 0x03, 0x3e, 
	0x00, 0x83, 0x4d, 0x3e, 0xb6, 0xa2, 0xb1, 0xbe, 0x13, 0x60, 0x7f, 0xbe, 
	0x83, 0xec, 0x89, 0xbe, 0x70, 0x56, 0x98, 0x3e, 0xa9, 0x5b, 0xd1, 0xbe, 
	0xdd, 0x4f, 0x77, 0xbe, 0xc3, 0xc7, 0xf3, 0x3e, 0x7d, 0x54, 0x28, 0x3e, 
	0x5b, 0x41, 0x65, 0xbe, 0x08, 0x90, 0x9a, 0x3e, 0x54, 0xe9, 0x96, 0x3c, 
	0xac, 0xe5, 0x92, 0xbe, 0x70, 0x55, 0xad, 0xbe, 0x62, 0x12, 0x2e, 0xbe, 
	0x45, 0xfc, 0x73, 0x3e, 0xe2, 0xba, 0x89, 0xbe, 0x50, 0x58, 0xd1, 0xbd, 
	0x7d, 0x7b, 0xd9, 0x3e, 0xb3, 0xff, 0x94, 0x3e, 0xb6, 0xcb, 0x88, 0x3e, 
	0x43, 0x61, 0xd1, 0x3e, 0x4f, 0x94, 0x0b, 0xbe, 0x73, 0xe8, 0x1a, 0xbf, 
	0xff, 0xa1, 0xdf, 0xbd, 0x5e, 0xd4, 0x6d, 0x3c, 0x12, 0xc7, 0x79, 0xbd, 
	0x45, 0xb0, 0xa7, 0x3e, 0x29, 0x16, 0x4e, 0xbe, 0x82, 0xfc, 0x9e, 0xbe, 
	0xe1, 0xef, 0x2d, 0x3d, 0xc1, 0x89, 0x80, 0xbe, 0x68, 0xe8, 0x25, 0xbf, 
	0x5c, 0x2c, 0x3b, 0x3e, 0x58, 0xdd, 0x39, 0x3e, 0xe1, 0x17, 0xc4, 0x3e, 
	0xb3, 0x3c, 0x55, 0xbe, 0x8f, 0x86, 0x32, 0x3f, 0x34, 0x11, 0xea, 0x3c, 
	0xd5, 0xe4, 0x74, 0xbe, 0xa3, 0x9a, 0x01, 0x3e, 0xee, 0x58, 0xb7, 0x3e, 
	0xb9, 0x56, 0x0c, 0x3e, 0x9b, 0x8f, 0xe0, 0xbe, 0xb0, 0xe1, 0xdc, 0xbd, 
	0x3f, 0x36, 0x0c, 0xbe, 0x42, 0xf4, 0x17, 0x3f, 0x2a, 0x79, 0x29, 0xbf, 
	0xc9, 0x43, 0xa1, 0x3d, 0xf6, 0x76, 0x80, 0xbd, 0xd8, 0x5e, 0xc3, 0x3e, 
	0xce, 0x3c, 0x37, 0xbe, 0x92, 0x03, 0xbd, 0x3e, 0xbc, 0x24, 0x26, 0xbf, 
	0x24, 0x2b, 0x7b, 0xbe, 0x62, 0xb2, 0x03, 0xbe, 0x1c, 0xe9, 0x85, 0x3e, 
	0xbb, 0x75, 0x9c, 0x3e, 0x1d, 0x2f, 0xf7, 0x3d, 0x00, 0x05, 0x05, 0x3f, 
	0x18, 0x3e, 0x18, 0x3e, 0xdc, 0x41, 0x89, 0x3c, 0xe5, 0xf9, 0xbf, 0xbe, 
	0xc7, 0x91, 0xd5, 0x3d, 0x68, 0x77, 0xbb, 0xbe, 0xee, 0xb4, 0xdf, 0x3e, 
	0x1a, 0x33, 0xd8, 0x3d, 0x4f, 0xca, 0x69, 0xbf, 0x8a, 0xdc, 0x1d, 0xbe, 
	0x1c, 0x01, 0x29, 0xbf, 0xac, 0xf0, 0xa5, 0xbe, 0x6c, 0xdd, 0x01, 0x3e, 
	0x48, 0xc2, 0x3b, 0x3e, 0x17, 0xa2, 0x5e, 0x3e, 0x71, 0x5a, 0xba, 0x3e, 
	0xd2, 0x3d, 0x5a, 0xbe, 0x42, 0xc8, 0x18, 0xbd, 0x65, 0x2f, 0xfb, 0xbc, 
	0xf5, 0xb8, 0xa7, 0x3d, 0xdf, 0x4b, 0x62, 0x3e, 0x20, 0x03, 0x7d, 0x3e, 
	0x5f, 0xd1, 0x9f, 0xbb, 0x9c, 0xe5, 0x1f, 0xbe, 0xde, 0x4c, 0x00, 0x3f, 
	0xe8, 0x27, 0x59, 0xbe, 0x05, 0xec, 0x15, 0x3f, 0x90, 0xcb, 0x89, 0x3e, 
	0xc7, 0xd0, 0x95, 0x3e, 0x5c, 0xe6, 0x7a, 0x3e, 0xe8, 0xcf, 0xf3, 0xbe, 
	0x3d, 0x0b, 0x08, 0xbc, 0x5a, 0xa9, 0xe1, 0x3e, 0x8d, 0x9c, 0xec, 0x3d, 
	0x38, 0xdd, 0x52, 0x3d, 0xf6, 0x90, 0x05, 0x3e, 0x01, 0xe7, 0x7c, 0xbe, 
	0x90, 0x17, 0x0d, 0x3c, 0xa2, 0x14, 0xea, 0x3d, 0xbc, 0x35, 0xb5, 0x3e, 
	0xac, 0x6b, 0x3b, 0xbf, 0xfe, 0xdb, 0x08, 0xbe, 0x44, 0x61, 0xe2, 0xbe, 
	0x33, 0x72, 0x2f, 0xbf, 0x30, 0x68, 0x2b, 0x3f, 0x06, 0x53, 0xa6, 0xbe, 
	0x0f, 0x3f, 0xd7, 0x3c, 0xa8, 0x48, 0x9a, 0x3e, 0xd1, 0x0d, 0x16, 0x3f, 
	0x88, 0x72, 0xad, 0xbe, 0xe4, 0x89, 0xa1, 0x3e, 0x07, 0xb6, 0x03, 0x3e, 
	0x42, 0xe5, 0x7f, 0x3d, 0x26, 0x52, 0x54, 0x3d, 0x81, 0x66, 0xcf, 0xbd, 
	0xf6, 0xb0, 0x73, 0xbe, 0xd9, 0xa1, 0xb2, 0x3d, 0x1e, 0x5a, 0xfb, 0xbe, 
	0x4e, 0x74, 0x58, 0x3e, 0x4f, 0x3f, 0x4d, 0x3e, 0xc4, 0xbf, 0x5e, 0xbf, 
	0x43, 0x20, 0xf7, 0x3d, 0xb1, 0x58, 0x69, 0xbe, 0xe6, 0x20, 0xba, 0xbe, 
	0xfc, 0x46, 0x52, 0xbe, 0xd5, 0x0b, 0xbd, 0x3d, 0x2c, 0x92, 0x21, 0xbe, 
	0xd2, 0x7b, 0xa3, 0x3e, 0xc3, 0x36, 0xdc, 0xbe, 0x7e, 0x07, 0x19, 0xbf, 
	0x9b, 0xe5, 0x06, 0xbe, 0x0c, 0x56, 0xa5, 0xbe, 0xde, 0x73, 0x87, 0x3e, 
	0xa0, 0xe8, 0xa0, 0xbe, 0xe7, 0x6b, 0x94, 0x3e, 0xa6, 0xc7, 0x24, 0x3e, 
	0x5a, 0xac, 0x07, 0xbf, 0x93, 0xa7, 0xde, 0xbd, 0x24, 0x54, 0xcd, 0x3d, 
	0x82, 0xb7, 0x93, 0x3e, 0x2b, 0x98, 0x54, 0xbe, 0x4d, 0x75, 0xdf, 0xbe, 
	0xc2, 0x47, 0x45, 0xbe, 0xa3, 0x9c, 0x1e, 0xbe, 0xb6, 0xe4, 0xea, 0x3d, 
	0x79, 0x0e, 0x94, 0xbc, 0xc2, 0x2e, 0x18, 0x3f, 0x18, 0x70, 0x1d, 0xbe, 
	0xfe, 0x62, 0xba, 0xbe, 0x2f, 0x96, 0x41, 0xbe, 0xc2, 0x5e, 0x28, 0x3d, 
	0xd7, 0x30, 0x2f, 0x3e, 0x8d, 0xd5, 0x11, 0xbe, 0xa0, 0x8f, 0x09, 0xbd, 
	0x4d, 0x89, 0xe6, 0x3e, 0x55, 0xa1, 0xbb, 0xbe, 0xe2, 0x80, 0xa3, 0x3e, 
	0x39, 0x2e, 0x6c, 0x3e, 0x8f, 0xd5, 0x19, 0x3d, 0x3a, 0x17, 0x3e, 0xbd, 
	0x5a, 0xd4, 0x8a, 0x3e, 0x00, 0xd4, 0xc1, 0xbc, 0xf4, 0xff, 0xe4, 0xbe, 
	0x57, 0x9a, 0x94, 0x3d, 0x52, 0xd7, 0x37, 0xbf, 0xec, 0x21, 0x85, 0x3e, 
	0xbb, 0x65, 0xb1, 0xbd, 0x80, 0x29, 0x50, 0xbf, 0xa0, 0x81, 0x6f, 0x3e, 
	0x57, 0x70, 0xa2, 0xbc, 0x57, 0xff, 0x4c, 0x3e, 0x50, 0x32, 0xdb, 0x3d, 
	0x3e, 0xa2, 0xa4, 0xbe, 0x22, 0x92, 0x3a, 0x3e, 0x0d, 0xfe, 0xc8, 0xbe, 
	0x1a, 0x75, 0x53, 0x3d, 0x8b, 0x3d, 0x39, 0xbf, 0x30, 0x4a, 0x68, 0xbe, 
	0xe3, 0x29, 0x5b, 0x3d, 0x8d, 0xbd, 0x1d, 0xbe, 0x50, 0xb2, 0xf7, 0xbe, 
	0x29, 0xc8, 0xe1, 0xbe, 0x5a, 0xf8, 0xc1, 0x3b, 0x0d, 0x67, 0xca, 0xbe, 
	0x73, 0x12, 0xae, 0x3e, 0x86, 0x02, 0x59, 0x3c, 0x01, 0xbb, 0x05, 0xbf, 
	0x1b, 0x68, 0x31, 0xbf, 0xd1, 0x69, 0x70, 0x3e, 0xf9, 0xb7, 0x36, 0x3e, 
	0x85, 0xb5, 0x0a, 0x3f, 0xe1, 0x4f, 0xeb, 0x3e, 0xd8, 0x89, 0xb2, 0xbd, 
	0xbb, 0x58, 0x0b, 0xbe, 0x7b, 0xc1, 0xf6, 0x3d, 0x1b, 0x6f, 0x93, 0xbe, 
	0x6e, 0x62, 0xca, 0x3e, 0xc3, 0x41, 0x6d, 0xbb, 0xc0, 0x19, 0xdd, 0x3d, 
	0x56, 0x59, 0x43, 0x3e, 0x24, 0xb6, 0x9c, 0xbe, 0xd5, 0x1d, 0x94, 0xbe, 
	0x58, 0x8a, 0x8d, 0xbe, 0x68, 0xcc, 0x00, 0x3f, 0xfd, 0xac, 0x3d, 0xbf, 
	0x26, 0x46, 0xc0, 0x3e, 0xf8, 0x0f, 0xcd, 0x3b, 0xef, 0x59, 0x65, 0xbe, 
	0x8b, 0x6f, 0x8b, 0xbe, 0xfb, 0x7c, 0x4a, 0x3e, 0x83, 0xd5, 0xdc, 0xbe, 
	0x02, 0xd2, 0x18, 0x3f, 0x57, 0xdc, 0x42, 0xbf, 0x29, 0x4b, 0x20, 0xbd, 
	0xba, 0x7d, 0x35, 0xbf, 0x5b, 0xd5, 0x9d, 0xbd, 0xd6, 0x28, 0xb3, 0xbd, 
	0xf3, 0x11, 0x59, 0x3e, 0x3f, 0xa3, 0x6a, 0x3e, 0x71, 0x01, 0xa2, 0x3e, 
	0x86, 0x4e, 0x59, 0x3e, 0xb0, 0x60, 0x28, 0x3a, 0x32, 0xf9, 0x25, 0x3d, 
	0x16, 0x6e, 0x5d, 0x3e, 0xaf, 0x5a, 0x3c, 0x3f, 0x78, 0xab, 0x9c, 0xbd, 
	0x52, 0xc0, 0x08, 0xbf, 0x9c, 0xcf, 0xd1, 0xbe, 0x0e, 0xa6, 0x37, 0x3e, 
	0xa0, 0x6e, 0xa8, 0x3c, 0xca, 0x58, 0x80, 0x3d, 0x3c, 0x54, 0xb6, 0xb9, 
	0x7f, 0x20, 0x80, 0x3e, 0xa2, 0x56, 0x78, 0xbe, 0xe2, 0x10, 0x9b, 0x3e, 
	0xdf, 0x5e, 0x96, 0x3e, 0x67, 0x63, 0x2e, 0x3e, 0xea, 0xf2, 0x54, 0xbe, 
	0x9f, 0x39, 0x52, 0x3e, 0xff, 0xc6, 0xe0, 0xbc, 0x83, 0xe2, 0x9e, 0x3e, 
	0xcd, 0x79, 0xc2, 0xbe, 0x43, 0x1e, 0x85, 0xbf, 0xba, 0x78, 0x11, 0x3e, 
	0xd3, 0x31, 0x02, 0x3e, 0x44, 0x81, 0xb8, 0xbd, 0x6e, 0xd8, 0x86, 0x3e, 
	0x32, 0x22, 0xf2, 0x3d, 0xdc, 0x9a, 0x2e, 0xbe, 0x98, 0x74, 0x31, 0x3f, 
	0x93, 0x88, 0x6d, 0xbc, 0x56, 0xa7, 0x61, 0xbe, 0xca, 0x37, 0xd2, 0x3d, 
	0xa8, 0x8b, 0x07, 0x3f, 0x59, 0x44, 0x40, 0x3e, 0x9b, 0x9c, 0x49, 0x3e, 
	0x0e, 0xe2, 0xa4, 0xbe, 0x3a, 0x1b, 0xac, 0xbe, 0x13, 0x7b, 0xf9, 0xbd, 
	0x45, 0xbc, 0x98, 0x3d, 0xe3, 0x06, 0xf4, 0xbd, 0x0f, 0xa7, 0x87, 0xbe, 
	0xe3, 0xfa, 0x56, 0xbe, 0xf1, 0x85, 0x21, 0x3e, 0x2b, 0xcd, 0x5c, 0xbd, 
	0x3f, 0xfd, 0x65, 0xbe, 0xd1, 0x86, 0x61, 0xbd, 0xb2, 0x60, 0xb2, 0x3e, 
	0xac, 0xf0, 0x86, 0x3d, 0xf6, 0x71, 0xe6, 0x3d, 0xb7, 0x59, 0x09, 0x3f, 
	0xf1, 0x67, 0xfc, 0x3e, 0x48, 0x6f, 0x31, 0x3e, 0x7f, 0x7d, 0x9f, 0xbe, 
	0xb0, 0xf5, 0xcb, 0x3e, 0xfd, 0x0d, 0xa9, 0x3d, 0x70, 0xc2, 0x2a, 0x3f, 
	0xc9, 0xc4, 0x6d, 0x3e, 0x13, 0x58, 0xb9, 0x3d, 0xdc, 0xea, 0x69, 0x3e, 
	0x8d, 0xb2, 0x0e, 0x3f, 0xc8, 0x69, 0x2e, 0x3d, 0xe2, 0xbe, 0xef, 0x3d, 
	0x41, 0x10, 0x95, 0xbd, 0xb7, 0xc3, 0x67, 0xbf, 0xc4, 0x0b, 0x6b, 0xbe, 
	0x85, 0xab, 0xad, 0xbe, 0x2f, 0xa0, 0x5c, 0x3e, 0x97, 0xe3, 0x10, 0x3e, 
	0x69, 0x9d, 0x01, 0x3f, 0x45, 0xd0, 0x2b, 0xbe, 0x62, 0x76, 0xdd, 0x3e, 
	0x15, 0xb7, 0x83, 0x3e, 0x69, 0x37, 0xbc, 0x3e, 0x94, 0x58, 0x82, 0x3e, 
	0x09, 0xad, 0xf4, 0xbd, 0x02, 0x3d, 0xdb, 0x3e, 0xe1, 0x52, 0xa2, 0x3e, 
	0x57, 0x01, 0x1b, 0xbe, 0x55, 0xcf, 0xcd, 0x3e, 0x75, 0x76, 0x22, 0xbe, 
	0xa7, 0xac, 0xe3, 0xb9, 0x9d, 0xbd, 0xce, 0x3d, 0xf5, 0x29, 0x88, 0x3d, 
	0xd2, 0xcd, 0xba, 0x3e, 0xa5, 0x77, 0x03, 0x3e, 0xee, 0xf2, 0x30, 0x3e, 
	0x4b, 0x30, 0x4e, 0x3d, 0x7f, 0x22, 0x00, 0x3e, 0x46, 0x7d, 0x8b, 0xbe, 
	0xf2, 0x48, 0x87, 0x3d, 0x5c, 0xa2, 0x86, 0xbe, 0x8e, 0x04, 0x4b, 0xbe, 
	0x8c, 0x01, 0xc5, 0x3e, 0x40, 0x6a, 0x62, 0xbe, 0xca, 0x20, 0x6b, 0xbe, 
	0xdb, 0x48, 0x34, 0xbd, 0x08, 0x84, 0xe3, 0xbd, 0x62, 0x51, 0xc0, 0x3e, 
	0x44, 0x25, 0x10, 0xbd, 0x88, 0x11, 0x2e, 0x3e, 0xb6, 0xe0, 0xca, 0x3d, 
	0x20, 0xe8, 0xd8, 0xbe, 0x88, 0x26, 0x0b, 0xbe, 0x46, 0xaa, 0xfc, 0x3e, 
	0xb5, 0x3c, 0x55, 0xbe, 0x87, 0xa7, 0x80, 0xbe, 0x3a, 0xe3, 0x4d, 0xbd, 
	0xf2, 0xdc, 0x7a, 0x3e, 0xa9, 0x2e, 0x8d, 0xbe, 0x55, 0x12, 0xb1, 0x3e, 
	0x15, 0xe0, 0x20, 0xbe, 0xa5, 0x30, 0x9e, 0xbe, 0x13, 0xfa, 0xa8, 0x3e, 
	0x67, 0x54, 0xd9, 0xbd, 0x19, 0x22, 0x36, 0x3e, 0xe5, 0x90, 0xa6, 0x3e, 
	0x90, 0x7d, 0xbe, 0x3c, 0x54, 0x90, 0x00, 0xbe, 0x26, 0x65, 0x12, 0x3e, 
	0xf5, 0x43, 0x3d, 0x3e, 0x00, 0x1c, 0xd1, 0xbe, 0x5a, 0x50, 0x12, 0xbf, 
	0xca, 0x3c, 0x01, 0x3d, 0xff, 0x3a, 0x15, 0xbe, 0x2b, 0x6d, 0x4b, 0xbe, 
	0x74, 0xcc, 0x26, 0x3f, 0x89, 0x51, 0x35, 0x3e, 0x73, 0x3f, 0xcb, 0x3e, 
	0xc6, 0x48, 0xf5, 0xbd, 0xb0, 0x67, 0x31, 0x3e, 0x28, 0xf7, 0x0f, 0xbe, 
	0xab, 0xe1, 0x7a, 0xbc, 0x4b, 0xc1, 0xd4, 0xbd, 0x4a, 0x86, 0xab, 0x3e, 
	0xba, 0x7c, 0x83, 0xbe, 0x54, 0xd7, 0xdf, 0xbd, 0xfd, 0x08, 0xbf, 0x3e, 
	0x09, 0xe7, 0x2b, 0xbe, 0xe5, 0x56, 0x0f, 0xbd, 0xcc, 0x4d, 0x02, 0x3e, 
	0x16, 0xbf, 0x39, 0xbd, 0x78, 0x87, 0x93, 0xbe, 0xde, 0x6f, 0xdd, 0x3d, 
	0x53, 0x63, 0xe2, 0xbe, 0x4e, 0x9e, 0x38, 0xbe, 0xb6, 0xbe, 0x42, 0xbe, 
	0x3c, 0x8d, 0xeb, 0x3e, 0xb8, 0x52, 0xf8, 0xbb, 0x54, 0x0d, 0x13, 0xbe, 
	0x3f, 0x4b, 0x71, 0xbd, 0x79, 0x70, 0xc7, 0xbe, 0xd6, 0xb0, 0x53, 0xbe, 
	0xd7, 0xed, 0x19, 0xbf, 0x30, 0x51, 0x46, 0xbe, 0x18, 0x5b, 0x2f, 0xbf, 
	0xae, 0x16, 0x13, 0xbe, 0x2f, 0x71, 0xfa, 0x3d, 0x08, 0xce, 0x99, 0xbe, 
	0x6c, 0x19, 0x04, 0xbe, 0x72, 0xdb, 0x44, 0x3e, 0xfe, 0x44, 0x13, 0x3f, 
	0xe3, 0x02, 0xea, 0xbd, 0x9a, 0x3b, 0x63, 0x3e, 0xf7, 0x5b, 0xa9, 0xbe, 
	0x8c, 0x43, 0x2e, 0xbe, 0x18, 0xdc, 0x0f, 0xbd, 0x1f, 0x68, 0xd0, 0x3e, 
	0x88, 0x51, 0x05, 0xbf, 0xa1, 0x18, 0xf5, 0x3e, 0x9f, 0x89, 0x74, 0xbf, 
	0x2e, 0xa3, 0x74, 0xbf, 0xb9, 0x07, 0x21, 0xbe, 0xb4, 0xba, 0x96, 0x3d, 
	0x24, 0x95, 0xb9, 0xbc, 0x36, 0xdd, 0x4d, 0x3e, 0xba, 0xf5, 0x2f, 0x3f, 
	0xec, 0x9a, 0xfa, 0xbd, 0x15, 0xf6, 0x6c, 0xbd, 0xd1, 0x0f, 0x7e, 0x3d, 
	0xb6, 0x3e, 0x07, 0x3f, 0x0a, 0xba, 0x2d, 0xbf, 0x43, 0x4e, 0xb9, 0xbc, 
	0x4a, 0xff, 0xf8, 0xbd, 0xca, 0x00, 0x0e, 0x3e, 0x73, 0x5d, 0xee, 0xbd, 
	0x60, 0xb8, 0x31, 0x3e, 0xa9, 0xf5, 0x31, 0x3e, 0x76, 0xa7, 0xd3, 0xbe, 
	0x51, 0x10, 0xcf, 0x3e, 0xbf, 0xd4, 0xf4, 0xbe, 0x87, 0xfa, 0xe0, 0xbd, 
	0xe6, 0x1d, 0x07, 0x3e, 0x26, 0x11, 0xe4, 0x3e, 0x1e, 0x3f, 0x3a, 0x3e, 
	0x2d, 0xcc, 0x8d, 0xbe, 0xbc, 0xbf, 0x61, 0xbe, 0x81, 0xcc, 0x9a, 0xbe, 
	0xd5, 0xe7, 0x67, 0x3e, 0x8a, 0xcb, 0xc3, 0x3d, 0xba, 0x59, 0x63, 0x3e, 
	0xeb, 0x30, 0xb9, 0xbe, 0xb0, 0x91, 0x6f, 0xbe, 0x18, 0x03, 0xaf, 0xbd, 
	0x07, 0xe6, 0x00, 0xbe, 0x9c, 0x87, 0x11, 0x3f, 0x9e, 0xe8, 0x99, 0x3e, 
	0xce, 0x8f, 0xb3, 0x3d, 0x69, 0xa6, 0xb7, 0xbc, 0xbc, 0xe1, 0xbb, 0xbd, 
	0xba, 0x87, 0x13, 0x3e, 0xfa, 0xaa, 0xab, 0xbe, 0x62, 0x74, 0xa6, 0x3e, 
	0xfa, 0x94, 0xf9, 0xbd, 0x07, 0xce, 0xd8, 0xbd, 0x7d, 0x3b, 0x42, 0xbc, 
	0xf9, 0xfc, 0x8b, 0xbe, 0x11, 0xd9, 0x22, 0xbd, 0xe5, 0x40, 0xa3, 0xbd, 
	0x5b, 0x48, 0xf8, 0xbe, 0x1c, 0xf3, 0xa0, 0x3e, 0x63, 0x46, 0x71, 0x3d, 
	0x37, 0x51, 0x59, 0x3e, 0x0a, 0xfd, 0x43, 0xbe, 0x4e, 0x0d, 0x94, 0xbe, 
	0x2e, 0x0e, 0xc8, 0xbe, 0xd0, 0xa4, 0x9d, 0xbd, 0xc9, 0xe6, 0x06, 0x3e, 
	0xcc, 0x7f, 0xaa, 0xbe, 0x81, 0xf2, 0xac, 0xbe, 0xdf, 0x60, 0xc5, 0xbe, 
	0x1e, 0x16, 0x3e, 0x3e, 0x71, 0xfb, 0x34, 0x3e, 0x51, 0x3f, 0x07, 0xbe, 
	0x53, 0x52, 0xd2, 0xbe, 0x10, 0x9e, 0x1f, 0x3f, 0x45, 0x53, 0x27, 0xbc, 
	0x17, 0x28, 0xb7, 0x3e, 0x09, 0xc0, 0x02, 0xbd, 0x97, 0xe6, 0xf8, 0x3d, 
	0xa1, 0x51, 0x8d, 0xbc, 0x23, 0x6f, 0xba, 0xbd, 0x3f, 0x76, 0xef, 0x3e, 
	0xc9, 0x69, 0x37, 0xbd, 0x24, 0x96, 0x41, 0xbe, 0x85, 0xb0, 0x3d, 0xbe, 
	0x38, 0xb5, 0x4b, 0xbe, 0x4d, 0x0c, 0x9a, 0x3e, 0x83, 0x27, 0x9b, 0x3b, 
	0xf5, 0x22, 0x24, 0xbe, 0xc7, 0x01, 0xad, 0x3d, 0xfe, 0xba, 0x21, 0x3e, 
	0x47, 0x51, 0x1f, 0xbf, 0x89, 0x89, 0x9c, 0xba, 0x1d, 0xca, 0xb9, 0x3d, 
	0x4e, 0x66, 0x8f, 0x3e, 0x4f, 0x74, 0x1f, 0x3e, 0x87, 0x6f, 0xda, 0x3e, 
	0x4d, 0x33, 0x31, 0x3f, 0xb8, 0x75, 0x13, 0x3e, 0x43, 0x5d, 0x0a, 0xbe, 
	0xba, 0x83, 0x1a, 0xbf, 0xd7, 0x0f, 0x6b, 0xbe, 0x88, 0xaf, 0x4e, 0xbc, 
	0x4c, 0x2d, 0x33, 0x3d, 0x78, 0xd4, 0x08, 0x3e, 0x24, 0x2d, 0xc8, 0x3e, 
	0x6a, 0x1d, 0x24, 0xbd, 0x15, 0x3b, 0x9e, 0xbc, 0x2c, 0x1e, 0xa2, 0x3d, 
	0xd7, 0x10, 0xff, 0xbd, 0x6d, 0x75, 0x33, 0xbe, 0x47, 0x63, 0x85, 0xbc, 
	0x57, 0x1f, 0x98, 0x3e, 0x9e, 0x78, 0x43, 0x3f, 0x69, 0x90, 0x6c, 0xbe, 
	0x4b, 0x72, 0x9f, 0x3e, 0xca, 0x0d, 0xd3, 0x3d, 0x6c, 0x59, 0x74, 0x3e, 
	0x1f, 0x99, 0x91, 0xbe, 0x66, 0x8c, 0xb5, 0x3e, 0x46, 0xcf, 0x0e, 0xbe, 
	0xc0, 0x1a, 0x6e, 0x3c, 0x93, 0xb5, 0x15, 0x3f, 0x7f, 0x53, 0x14, 0x3f, 
	0x09, 0xfb, 0x0d, 0xbc, 0x9a, 0xc5, 0x26, 0xbe, 0x4e, 0xd0, 0xa9, 0x3d, 
	0x07, 0x83, 0x34, 0xbe, 0x1e, 0x9c, 0x5a, 0xbd, 0xc6, 0x24, 0x07, 0xbf, 
	0xa7, 0xa6, 0x3b, 0xbe, 0x31, 0x5c, 0x06, 0x3e, 0xc9, 0x95, 0xfe, 0xbe, 
	0xe8, 0x0d, 0xa6, 0xbe, 0x4e, 0x89, 0xf2, 0x3d, 0xcc, 0x67, 0x00, 0x3f, 
	0x86, 0x19, 0xd1, 0x3e, 0xed, 0x9c, 0x31, 0x3e, 0x93, 0x0b, 0x34, 0x3f, 
	0x03, 0xb5, 0xba, 0xbc, 0xa9, 0xc0, 0x65, 0x3e, 0x2d, 0xc4, 0x74, 0xbd, 
	0x22, 0x98, 0x04, 0x3e, 0x3c, 0xd7, 0x30, 0xbf, 0x43, 0xca, 0x69, 0xbe, 
	0x13, 0xb0, 0xcc, 0xbe, 0xbd, 0x82, 0x51, 0x3e, 0x3d, 0xa1, 0x04, 0xbf, 
	0xf6, 0x9a, 0x55, 0x3d, 0x53, 0x29, 0x94, 0xbe, 0x3b, 0x8c, 0x29, 0x3e, 
	0x41, 0xfe, 0x20, 0xbf, 0xa4, 0x02, 0x4c, 0xbe, 0xd5, 0xc9, 0x0d, 0xbf, 
	0x14, 0x46, 0x13, 0x3f, 0xd4, 0x4e, 0x61, 0x3e, 0x00, 0x2e, 0xa0, 0x3e, 
	0x3e, 0x94, 0x1f, 0x3f, 0x4e, 0x3f, 0x71, 0x3c, 0xb0, 0xf7, 0x9a, 0x3d, 
	0xfa, 0xdf, 0x21, 0xbe, 0xe7, 0x7e, 0x2b, 0xbe, 0x96, 0x02, 0x6b, 0xbd, 
	0x5e, 0x9d, 0xb3, 0xbc, 0x0e, 0xf5, 0x0a, 0x3e, 0xeb, 0x19, 0x06, 0x3f, 
	0x0b, 0x49, 0x91, 0xbd, 0x01, 0x70, 0x95, 0x3d, 0x61, 0x61, 0x79, 0x3e, 
	0xe0, 0x1d, 0x49, 0xbd, 0xd3, 0xa9, 0xb2, 0xbd, 0x4b, 0x03, 0x99, 0x3e, 
	0x16, 0x09, 0x3d, 0xbe, 0x03, 0xcf, 0x0c, 0x3e, 0x15, 0xa4, 0x91, 0x3e, 
	0x07, 0x4d, 0x79, 0x3d, 0xb5, 0xcf, 0xca, 0x3e, 0xcc, 0x07, 0xe9, 0x3c, 
	0x54, 0xe2, 0x18, 0x3e, 0x05, 0x4a, 0x86, 0x3e, 0xd9, 0x36, 0xb6, 0xbe, 
	0x2a, 0xf6, 0xf0, 0x3c, 0x4a, 0x84, 0x07, 0x3d, 0x5d, 0x8d, 0xb5, 0xbe, 
	0xe2, 0x08, 0x48, 0x3e, 0x02, 0x94, 0x23, 0x3e, 0xb8, 0x80, 0xe3, 0x3e, 
	0xaf, 0xdd, 0x63, 0xbe, 0x49, 0x29, 0xb4, 0xbe, 0x11, 0xc8, 0xff, 0xbd, 
	0x18, 0x37, 0x81, 0xbe, 0x72, 0x52, 0xe3, 0x3c, 0xf9, 0x15, 0xad, 0x3c, 
	0xdf, 0x18, 0xaf, 0x3e, 0xb7, 0xb1, 0x24, 0xbd, 0x25, 0x70, 0x25, 0xbf, 
	0x4f, 0x3f, 0x87, 0xbe, 0x8b, 0x7b, 0x81, 0x3e, 0xe2, 0x95, 0x6e, 0xba, 
	0x94, 0xe1, 0xe8, 0xbe, 0x8d, 0x47, 0x71, 0x3c, 0xa3, 0x5f, 0x60, 0xbe, 
	0x73, 0xef, 0x97, 0xbe, 0x0c, 0x06, 0x3c, 0x3f, 0xb7, 0x2b, 0x8f, 0x3e, 
	0x3e, 0xbc, 0x8c, 0x3d, 0xb5, 0x3c, 0x1e, 0x3c, 0x1a, 0xfa, 0xf3, 0xbe, 
	0x42, 0xaa, 0x3b, 0x3e, 0xa5, 0xa3, 0x13, 0xbf, 0x89, 0xb2, 0x95, 0xbe, 
	0x7c, 0x8e, 0x32, 0xbf, 0x18, 0x8c, 0x50, 0xbe, 0x5e, 0xe6, 0x8e, 0x3c, 
	0xcb, 0xd1, 0x36, 0xbf, 0xb9, 0x26, 0xfd, 0xbe, 0x7d, 0xa8, 0x88, 0x3e, 
	0x9e, 0x21, 0x2a, 0xbf, 0xb8, 0x3e, 0xc8, 0xbe, 0x3d, 0xc3, 0x8c, 0x3d, 
	0xe6, 0x21, 0xa9, 0x3e, 0x97, 0x47, 0xbb, 0xbd, 0xef, 0x04, 0x4c, 0xbf, 
	0xf7, 0xb6, 0x86, 0x3e, 0xa8, 0xaa, 0x49, 0x3f, 0x82, 0xcc, 0xd5, 0x3c, 
	0x21, 0xd8, 0x80, 0x3e, 0x13, 0xc3, 0xef, 0x3e, 0x66, 0x3a, 0x49, 0x3d, 
	0x00, 0xfa, 0xff, 0xff, 0x04, 0xfa, 0xff, 0xff, 0x4a, 0xfd, 0xff, 0xff, 
	0x04, 0x00, 0x00, 0x00, 0x80, 0x00, 0x00, 0x00, 0xde, 0x8a, 0xc7, 0xbe, 
	0x73, 0x19, 0xf2, 0x3e, 0x5a, 0xba, 0xaa, 0xbf, 0xb8, 0x86, 0xa9, 0xbd, 
	0xb7, 0xbc, 0x6b, 0xbf, 0xf9, 0xa6, 0x8e, 0xbf, 0xd5, 0x1a, 0xeb, 0x3e, 
	0x8c, 0x87, 0x06, 0x3e, 0xdb, 0x24, 0x61, 0xbe, 0xa1, 0x47, 0x12, 0x3e, 
	0x9a, 0xc5, 0x5a, 0x3f, 0xe6, 0xd9, 0x6b, 0x3e, 0xb5, 0xba, 0x45, 0x3f, 
	0x0b, 0x72, 0x07, 0xbe, 0x95, 0x7f, 0x83, 0x3f, 0x92, 0xf8, 0xfc, 0x3e, 
	0x71, 0x1b, 0x17, 0xbf, 0xf5, 0xcd, 0x83, 0xbf, 0x63, 0x30, 0x82, 0x3f, 
	0x02, 0x73, 0xf0, 0xbe, 0x34, 0xd0, 0x7a, 0x3f, 0xff, 0x69, 0x27, 0x3f, 
	0x99, 0x49, 0x1f, 0x3f, 0x47, 0x71, 0x8d, 0xbd, 0xaa, 0xde, 0x60, 0xbf, 
	0xc5, 0xc4, 0x47, 0xbf, 0x42, 0xcf, 0xf7, 0xbe, 0xfa, 0xd9, 0x4b, 0x3e, 
	0x00, 0x35, 0xe3, 0xbc, 0x1a, 0xd6, 0x41, 0x3e, 0x44, 0x9f, 0x5e, 0xbf, 
	0x42, 0x87, 0x12, 0x3f, 0x94, 0xfa, 0xff, 0xff, 0xda, 0xfd, 0xff, 0xff, 
	0x04, 0x00, 0x00, 0x00, 0x80, 0x00, 0x00, 0x00, 0x4b, 0x28, 0x9a, 0xbd, 
	0xd8, 0xf8, 0x29, 0x3d, 0x21, 0x0b, 0xb4, 0x3d, 0x3e, 0x21, 0x1f, 0x3e, 
	0x06, 0x02, 0x46, 0x3d, 0x04, 0xcf, 0x89, 0x3d, 0xda, 0x73, 0x8c, 0x3e, 
	0xd4, 0xbd, 0x8f, 0xbd, 0xb6, 0xc0, 0x68, 0xbc, 0x3e, 0x27, 0x7d, 0x3e, 
	0x8d, 0xf1, 0x93, 0x3d, 0x1f, 0x9a, 0xab, 0xbd, 0x44, 0x11, 0x40, 0xbd, 
	0xb3, 0xc8, 0x90, 0xbd, 0x20, 0x2d, 0x07, 0x3d, 0x79, 0x50, 0x1b, 0xbe, 
	0x86, 0xe2, 0x3f, 0xbe, 0xce, 0x31, 0x07, 0xbd, 0x9e, 0x5d, 0x45, 0x3c, 
	0x01, 0x3d, 0xbd, 0xbd, 0x49, 0x95, 0x94, 0x3d, 0x4f, 0xab, 0x81, 0xbd, 
	0x00, 0x87, 0x5a, 0xbe, 0x0b, 0x27, 0x3e, 0x3e, 0x34, 0x8c, 0x33, 0x3d, 
	0xfd, 0x23, 0x2d, 0xbd, 0xae, 0x05, 0xa1, 0x3e, 0x5e, 0x14, 0x8b, 0x3e, 
	0x14, 0x2f, 0x34, 0x3e, 0x26, 0x33, 0x75, 0x3e, 0xc8, 0xc4, 0xa8, 0x3d, 
	0x51, 0xa0, 0x3d, 0xbe, 0x66, 0xfe, 0xff, 0xff, 0x04, 0x00, 0x00, 0x00, 
	0x00, 0x01, 0x00, 0x00, 0x8f, 0x53, 0x28, 0xbc, 0xb8, 0xbb, 0xc2, 0xbe, 
	0x20, 0x14, 0xda, 0x3d, 0x8a, 0x67, 0x15, 0xbc, 0x98, 0x44, 0xa4, 0x3d, 
	0xe0, 0x6d, 0x0d, 0x3d, 0xee, 0x40, 0x6f, 0xbe, 0x0f, 0x64, 0xff, 0xb9, 
	0xb1, 0x75, 0xf2, 0xbe, 0x56, 0x0b, 0x61, 0x3e, 0xba, 0x3a, 0xeb, 0xbc, 
	0xce, 0x11, 0x70, 0x3a, 0x7b, 0x95, 0x06, 0xbe, 0xad, 0x66, 0x81, 0x3e, 
	0x4b, 0x76, 0xd8, 0xbe, 0x42, 0xa2, 0xe9, 0x3e, 0xb1, 0x36, 0x11, 0x3f, 
	0xad, 0x5c, 0x5a, 0xbe, 0x75, 0x79, 0xb5, 0x3e, 0x81, 0x03, 0x00, 0xbf, 
	0x3e, 0x06, 0x54, 0x3d, 0x52, 0xcd, 0x8e, 0xbe, 0x10, 0x1c, 0xeb, 0x3c, 
	0x5c, 0xe9, 0x70, 0xbe, 0x8c, 0x7a, 0x2b, 0x3e, 0xa6, 0xa5, 0x1c, 0x3f, 
	0x94, 0x2c, 0x25, 0x3b, 0xb0, 0x8e, 0x99, 0xbc, 0xb7, 0xe2, 0x82, 0xbe, 
	0x25, 0x8f, 0x0a, 0xbf, 0x76, 0x28, 0x04, 0x3e, 0xbe, 0xa6, 0xaf, 0x3d, 
	0x31, 0xea, 0xcc, 0xbd, 0x78, 0x19, 0x06, 0xbf, 0x2c, 0x9b, 0x6a, 0x3d, 
	0x33, 0xa8, 0xaa, 0xbc, 0x48, 0xff, 0x20, 0x3d, 0x46, 0x1b, 0x45, 0xbe, 
	0xb9, 0xf4, 0x8f, 0xbe, 0x45, 0xd6, 0x3e, 0x3b, 0x1f, 0x0a, 0x10, 0xbf, 
	0xd8, 0x7a, 0xf4, 0xba, 0xd1, 0x03, 0x55, 0xbe, 0x9a, 0x2c, 0xcf, 0xb8, 
	0x76, 0x27, 0x53, 0xbe, 0x1a, 0x88, 0x7e, 0x3e, 0x7e, 0xcf, 0x08, 0xbf, 
	0x9c, 0x17, 0xed, 0x3e, 0xbc, 0x3b, 0x16, 0x3f, 0xdc, 0xd4, 0x95, 0xbe, 
	0xf5, 0xc2, 0x92, 0x3e, 0x82, 0xbf, 0x16, 0xbf, 0x60, 0xf4, 0xcd, 0x3c, 
	0x02, 0x79, 0xaa, 0xbe, 0x86, 0x2c, 0x72, 0xbc, 0xe5, 0x6f, 0x83, 0xbe, 
	0x64, 0x97, 0x1d, 0x3e, 0xd7, 0x0d, 0x22, 0x3f, 0xdb, 0x34, 0x40, 0xbb, 
	0x8a, 0x12, 0xc8, 0xbd, 0xf8, 0x28, 0xa4, 0xbe, 0xc5, 0x97, 0x19, 0xbf, 
	0xc4, 0x54, 0xea, 0x3d, 0x2e, 0xd1, 0x3b, 0x3d, 0x72, 0xff, 0xff, 0xff, 
	0x04, 0x00, 0x00, 0x00, 0x80, 0x00, 0x00, 0x00, 0x38, 0x82, 0x4f, 0x3e, 
	0x28, 0x26, 0xb5, 0x3a, 0x44, 0xcb, 0x58, 0x3e, 0x5e, 0xe3, 0x10, 0xbd, 
	0x83, 0x69, 0x31, 0x3e, 0x50, 0x9c, 0x53, 0xbe, 0x18, 0x61, 0x71, 0xbd, 
	0x00, 0x00, 0x00, 0x00, 0x44, 0x2e, 0x08, 0x3e, 0xa7, 0xfa, 0x4a, 0xbe, 
	0xc7, 0x70, 0x9c, 0xbe, 0x7b, 0xb7, 0x40, 0xbc, 0xb1, 0x45, 0xa3, 0x3d, 
	0x8f, 0x31, 0x20, 0x3e, 0x5b, 0x5c, 0x08, 0x3e, 0xd4, 0x73, 0x3b, 0x3e, 
	0x67, 0x62, 0x82, 0x3e, 0xa2, 0x5e, 0x93, 0x3c, 0xa3, 0x22, 0x78, 0x3e, 
	0x49, 0x73, 0xce, 0x3d, 0x8f, 0x07, 0x76, 0x3e, 0x5a, 0x37, 0x72, 0xbe, 
	0x38, 0xc1, 0xde, 0x3d, 0xe4, 0xc3, 0x09, 0x3c, 0xbd, 0x48, 0x1b, 0x3e, 
	0xe1, 0x70, 0x94, 0x3e, 0x18, 0x70, 0x9f, 0x39, 0x6b, 0xe1, 0x3d, 0x3e, 
	0xe8, 0x67, 0x29, 0xbe, 0x8d, 0x97, 0x42, 0x3e, 0x7f, 0x9b, 0xe9, 0x3d, 
	0xb1, 0xec, 0x38, 0x3e, 0x00, 0x00, 0x06, 0x00, 0x08, 0x00, 0x04, 0x00, 
	0x06, 0x00, 0x00, 0x00, 0x04, 0x00, 0x00, 0x00, 0x08, 0x00, 0x00, 0x00, 
	0x36, 0x2f, 0x36, 0x3d, 0x60, 0xf0, 0x32, 0xbc, 0xd8, 0xfc, 0xff, 0xff, 
	0x0c, 0x00, 0x14, 0x00, 0x04, 0x00, 0x08, 0x00, 0x0c, 0x00, 0x10, 0x00, 
	0x0c, 0x00, 0x00, 0x00, 0x20, 0x00, 0x00, 0x00, 0x14, 0x00, 0x00, 0x00, 
	0x08, 0x00, 0x00, 0x00, 0xc4, 0x02, 0x00, 0x00, 0x01, 0x00, 0x00, 0x00, 
	0x06, 0x00, 0x00, 0x00, 0x01, 0x00, 0x00, 0x00, 0x09, 0x00, 0x00, 0x00, 
	0x0a, 0x00, 0x00, 0x00, 0xc0, 0x00, 0x00, 0x00, 0xf4, 0x00, 0x00, 0x00, 
	0xa4, 0x01, 0x00, 0x00, 0x28, 0x01, 0x00, 0x00, 0x18, 0x02, 0x00, 0x00, 
	0x68, 0x00, 0x00, 0x00, 0x5c, 0x01, 0x00, 0x00, 0x58, 0x02, 0x00, 0x00, 
	0xc4, 0x01, 0x00, 0x00, 0x04, 0x00, 0x00, 0x00, 0xc2, 0xfd, 0xff, 0xff, 
	0x10, 0x00, 0x00, 0x00, 0x0a, 0x00, 0x00, 0x00, 0x14, 0x00, 0x00, 0x00, 
	0x28, 0x00, 0x00, 0x00, 0x02, 0x00, 0x00, 0x00, 0x01, 0x00, 0x00, 0x00, 
	0x01, 0x00, 0x00, 0x00, 0x0b, 0x00, 0x00, 0x00, 0x64, 0x65, 0x6e, 0x73, 
	0x65, 0x5f, 0x69, 0x6e, 0x70, 0x75, 0x74, 0x00, 0x08, 0x00, 0x0c, 0x00, 
	0x04, 0x00, 0x08, 0x00, 0x08, 0x00, 0x00, 0x00, 0x10, 0x00, 0x00, 0x00, 
	0x04, 0x00, 0x00, 0x00, 0x01, 0x00, 0x00, 0x00, 0x00, 0x00, 0x7f, 0x43, 
	0x01, 0x00, 0x00, 0x00, 0x00, 0x00, 0x00, 0x00, 0x16, 0xfe, 0xff, 0xff, 
	0x10, 0x00, 0x00, 0x00, 0x09, 0x00, 0x00, 0x00, 0x14, 0x00, 0x00, 0x00, 
	0x30, 0x00, 0x00, 0x00, 0x02, 0x00, 0x00, 0x00, 0x20, 0x00, 0x00, 0x00, 
	0x20, 0x00, 0x00, 0x00, 0x18, 0x00, 0x00, 0x00, 0x64, 0x65, 0x6e, 0x73, 
	0x65, 0x5f, 0x31, 0x2f, 0x6b, 0x65, 0x72, 0x6e, 0x65, 0x6c, 0x2f, 0x74, 
	0x72, 0x61, 0x6e, 0x73, 0x70, 0x6f, 0x73, 0x65, 0x00, 0x00, 0x00, 0x00, 
	0xcc, 0xfd, 0xff, 0xff, 0x5a, 0xfe, 0xff, 0xff, 0x10, 0x00, 0x00, 0x00, 
	0x08, 0x00, 0x00, 0x00, 0x14, 0x00, 0x00, 0x00, 0x24, 0x00, 0x00, 0x00, 
	0x02, 0x00, 0x00, 0x00, 0x01, 0x00, 0x00, 0x00, 0x20, 0x00, 0x00, 0x00, 
	0x0f, 0x00, 0x00, 0x00, 0x61, 0x63, 0x74, 0x69, 0x76, 0x61, 0x74, 0x69, 
	0x6f, 0x6e, 0x2f, 0x52, 0x65, 0x6c, 0x75, 0x00, 0x04, 0xfe, 0xff, 0xff, 
	0x92, 0xfe, 0xff, 0xff, 0x10, 0x00, 0x00, 0x00, 0x07, 0x00, 0x00, 0x00, 
	0x14, 0x00, 0x00, 0x00, 0x28, 0x00, 0x00, 0x00, 0x02, 0x00, 0x00, 0x00, 
	0x01, 0x00, 0x00, 0x00, 0x20, 0x00, 0x00, 0x00, 0x11, 0x00, 0x00, 0x00, 
	0x61, 0x63, 0x74, 0x69, 0x76, 0x61, 0x74, 0x69, 0x6f, 0x6e, 0x5f, 0x31, 
	0x2f, 0x52, 0x65, 0x6c, 0x75, 0x00, 0x00, 0x00, 0x40, 0xfe, 0xff, 0xff, 
	0xce, 0xfe, 0xff, 0xff, 0x10, 0x00, 0x00, 0x00, 0x06, 0x00, 0x00, 0x00, 
	0x14, 0x00, 0x00, 0x00, 0x2c, 0x00, 0x00, 0x00, 0x02, 0x00, 0x00, 0x00, 
	0x20, 0x00, 0x00, 0x00, 0x01, 0x00, 0x00, 0x00, 0x16, 0x00, 0x00, 0x00, 
	0x64, 0x65, 0x6e, 0x73, 0x65, 0x2f, 0x6b, 0x65, 0x72, 0x6e, 0x65, 0x6c, 
	0x2f, 0x74, 0x72, 0x61, 0x6e, 0x73, 0x70, 0x6f, 0x73, 0x65, 0x00, 0x00, 
	0x80, 0xfe, 0xff, 0xff, 0x0e, 0xff, 0xff, 0xff, 0x10, 0x00, 0x00, 0x00, 
	0x05, 0x00, 0x00, 0x00, 0x14, 0x00, 0x00, 0x00, 0x24, 0x00, 0x00, 0x00, 
	0x02, 0x00, 0x00, 0x00, 0x01, 0x00, 0x00, 0x00, 0x02, 0x00, 0x00, 0x00, 
	0x0f, 0x00, 0x00, 0x00, 0x64, 0x65, 0x6e, 0x73, 0x65, 0x5f, 0x32, 0x2f, 
	0x42, 0x69, 0x61, 0x73, 0x41, 0x64, 0x64, 0x00, 0xb8, 0xfe, 0xff, 0xff, 
	0x46, 0xff, 0xff, 0xff, 0x10, 0x00, 0x00, 0x00, 0x04, 0x00, 0x00, 0x00, 
	0x10, 0x00, 0x00, 0x00, 0x24, 0x00, 0x00, 0x00, 0x01, 0x00, 0x00, 0x00, 
	0x20, 0x00, 0x00, 0x00, 0x11, 0x00, 0x00, 0x00, 0x64, 0x65, 0x6e, 0x73, 
	0x65, 0x2f, 0x4d, 0x61, 0x74, 0x4d, 0x75, 0x6c, 0x5f, 0x62, 0x69, 0x61, 
	0x73, 0x00, 0x00, 0x00, 0xf0, 0xfe, 0xff, 0xff, 0x7e, 0xff, 0xff, 0xff, 
	0x10, 0x00, 0x00, 0x00, 0x03, 0x00, 0x00, 0x00, 0x14, 0x00, 0x00, 0x00, 
	0x30, 0x00, 0x00, 0x00, 0x02, 0x00, 0x00, 0x00, 0x02, 0x00, 0x00, 0x00, 
	0x20, 0x00, 0x00, 0x00, 0x18, 0x00, 0x00, 0x00, 0x64, 0x65, 0x6e, 0x73, 
	0x65, 0x5f, 0x32, 0x2f, 0x6b, 0x65, 0x72, 0x6e, 0x65, 0x6c, 0x2f, 0x74, 
	0x72, 0x61, 0x6e, 0x73, 0x70, 0x6f, 0x73, 0x65, 0x00, 0x00, 0x00, 0x00, 
	0x34, 0xff, 0xff, 0xff, 0xc2, 0xff, 0xff, 0xff, 0x10, 0x00, 0x00, 0x00, 
	0x02, 0x00, 0x00, 0x00, 0x10, 0x00, 0x00, 0x00, 0x28, 0x00, 0x00, 0x00, 
	0x01, 0x00, 0x00, 0x00, 0x20, 0x00, 0x00, 0x00, 0x13, 0x00, 0x00, 0x00, 
	0x64, 0x65, 0x6e, 0x73, 0x65, 0x5f, 0x31, 0x2f, 0x4d, 0x61, 0x74, 0x4d, 
	0x75, 0x6c, 0x5f, 0x62, 0x69, 0x61, 0x73, 0x00, 0x04, 0x00, 0x06, 0x00, 
	0x04, 0x00, 0x00, 0x00, 0x00, 0x00, 0x0e, 0x00, 0x14, 0x00, 0x04, 0x00, 
	0x00, 0x00, 0x08, 0x00, 0x0c, 0x00, 0x10, 0x00, 0x0e, 0x00, 0x00, 0x00, 
	0x10, 0x00, 0x00, 0x00, 0x01, 0x00, 0x00, 0x00, 0x10, 0x00, 0x00, 0x00, 
	0x24, 0x00, 0x00, 0x00, 0x01, 0x00, 0x00, 0x00, 0x02, 0x00, 0x00, 0x00, 
	0x13, 0x00, 0x00, 0x00, 0x64, 0x65, 0x6e, 0x73, 0x65, 0x5f, 0x32, 0x2f, 
	0x4d, 0x61, 0x74, 0x4d, 0x75, 0x6c, 0x5f, 0x62, 0x69, 0x61, 0x73, 0x00, 
	0xb8, 0xff, 0xff, 0xff, 0x03, 0x00, 0x00, 0x00, 0x98, 0x00, 0x00, 0x00, 
	0x44, 0x00, 0x00, 0x00, 0x04, 0x00, 0x00, 0x00, 0x88, 0xff, 0xff, 0xff, 
	0x00, 0x00, 0x00, 0x08, 0x10, 0x00, 0x00, 0x00, 0x1c, 0x00, 0x00, 0x00, 
	0x28, 0x00, 0x00, 0x00, 0x1c, 0x00, 0x00, 0x00, 0x03, 0x00, 0x00, 0x00, 
	0x01, 0x00, 0x00, 0x00, 0x08, 0x00, 0x00, 0x00, 0x07, 0x00, 0x00, 0x00, 
	0x01, 0x00, 0x00, 0x00, 0x06, 0x00, 0x00, 0x00, 0x00, 0x00, 0x00, 0x00, 
	0x04, 0x00, 0x04, 0x00, 0x04, 0x00, 0x00, 0x00, 0xc4, 0xff, 0xff, 0xff, 
	0x00, 0x00, 0x00, 0x08, 0x10, 0x00, 0x00, 0x00, 0x1c, 0x00, 0x00, 0x00, 
	0x24, 0x00, 0x00, 0x00, 0x1c, 0x00, 0x00, 0x00, 0x03, 0x00, 0x00, 0x00, 
	0x00, 0x00, 0x00, 0x00, 0x05, 0x00, 0x00, 0x00, 0x04, 0x00, 0x00, 0x00, 
	0x01, 0x00, 0x00, 0x00, 0x01, 0x00, 0x00, 0x00, 0x00, 0x00, 0x00, 0x00, 
	0x8e, 0xff, 0xff, 0xff, 0x00, 0x00, 0x00, 0x01, 0x14, 0x00, 0x18, 0x00, 
	0x00, 0x00, 0x08, 0x00, 0x0c, 0x00, 0x07, 0x00, 0x10, 0x00, 0x00, 0x00, 
	0x00, 0x00, 0x14, 0x00, 0x14, 0x00, 0x00, 0x00, 0x00, 0x00, 0x00, 0x08, 
	0x10, 0x00, 0x00, 0x00, 0x1c, 0x00, 0x00, 0x00, 0x24, 0x00, 0x00, 0x00, 
	0x1c, 0x00, 0x00, 0x00, 0x03, 0x00, 0x00, 0x00, 0x09, 0x00, 0x00, 0x00, 
	0x03, 0x00, 0x00, 0x00, 0x02, 0x00, 0x00, 0x00, 0x01, 0x00, 0x00, 0x00, 
	0x00, 0x00, 0x00, 0x00, 0x00, 0x00, 0x00, 0x00, 0xde, 0xff, 0xff, 0xff, 
	0x00, 0x00, 0x00, 0x01, 0x01, 0x00, 0x00, 0x00, 0x04, 0x00, 0x00, 0x00, 
	0xfa, 0xff, 0xff, 0xff, 0x00, 0x09, 0x06, 0x00, 0x06, 0x00, 0x05, 0x00, 
	0x06, 0x00, 0x00, 0x00, 0x00, 0x09, 0x06, 0x00, 0x08, 0x00, 0x07, 0x00, 
	0x06, 0x00, 0x00, 0x00, 0x00, 0x00, 0x00, 0x09
};
const int rl_model_len = 5960;

#endif 

#ifdef A2C_p_1_axis_rotating 
const unsigned char rl_model[] DATA_ALIGN_ATTRIBUTE = {
	0x18, 0x00, 0x00, 0x00, 0x54, 0x46, 0x4c, 0x33, 0x00, 0x00, 0x0e, 0x00, 
	0x18, 0x00, 0x04, 0x00, 0x08, 0x00, 0x0c, 0x00, 0x10, 0x00, 0x14, 0x00, 
	0x0e, 0x00, 0x00, 0x00, 0x03, 0x00, 0x00, 0x00, 0x00, 0x17, 0x00, 0x00, 
	0x0c, 0x00, 0x00, 0x00, 0x10, 0x00, 0x00, 0x00, 0x20, 0x00, 0x00, 0x00, 
	0x01, 0x00, 0x00, 0x00, 0x40, 0x13, 0x00, 0x00, 0x0f, 0x00, 0x00, 0x00, 
	0x54, 0x4f, 0x43, 0x4f, 0x20, 0x43, 0x6f, 0x6e, 0x76, 0x65, 0x72, 0x74, 
	0x65, 0x64, 0x2e, 0x00, 0x0b, 0x00, 0x00, 0x00, 0x14, 0x13, 0x00, 0x00, 
	0xfc, 0x12, 0x00, 0x00, 0x64, 0x12, 0x00, 0x00, 0x54, 0x11, 0x00, 0x00, 
	0xc4, 0x10, 0x00, 0x00, 0xbc, 0x10, 0x00, 0x00, 0x2c, 0x10, 0x00, 0x00, 
	0x24, 0x10, 0x00, 0x00, 0x1c, 0x10, 0x00, 0x00, 0x0c, 0x00, 0x00, 0x00, 
	0x04, 0x00, 0x00, 0x00, 0xf0, 0xe9, 0xff, 0xff, 0x36, 0xed, 0xff, 0xff, 
	0x04, 0x00, 0x00, 0x00, 0x00, 0x10, 0x00, 0x00, 0x6e, 0x70, 0x49, 0x3e, 
	0xa7, 0xbd, 0xa2, 0xbd, 0xe8, 0x41, 0x46, 0xbe, 0xd0, 0x6b, 0x19, 0x3f, 
	0xcc, 0x0b, 0x39, 0x3e, 0xc3, 0xe3, 0x0c, 0x3e, 0xcb, 0x71, 0x9c, 0x3d, 
	0xd7, 0x8c, 0xd0, 0x3d, 0xe3, 0x28, 0xfd, 0x3e, 0xaa, 0x8a, 0x9a, 0x3e, 
	0x54, 0xd1, 0x27, 0x3e, 0x77, 0x54, 0x5e, 0xbd, 0xd9, 0xdf, 0xf8, 0xbd, 
	0xc5, 0xae, 0x89, 0xbd, 0x2d, 0xf9, 0xdb, 0xbd, 0x6a, 0xe9, 0xf4, 0xbe, 
	0x6a, 0x00, 0x14, 0xbf, 0x02, 0x4a, 0xdc, 0xbc, 0x3f, 0x00, 0xaa, 0x3d, 
	0xb3, 0xd6, 0x02, 0xbf, 0xc7, 0x46, 0x0b, 0x3e, 0xaa, 0x5e, 0x46, 0xbd, 
	0xe6, 0x31, 0xba, 0xbe, 0x11, 0x62, 0xe7, 0x3d, 0xda, 0xb3, 0x32, 0x3f, 
	0xcc, 0xd1, 0xc2, 0x3e, 0x9e, 0xc5, 0x26, 0x3d, 0x9f, 0x7e, 0x1b, 0x3d, 
	0xed, 0x4c, 0x92, 0x3e, 0xf2, 0x29, 0xc3, 0x3d, 0x6c, 0xdf, 0xb2, 0x3e, 
	0x2c, 0xb6, 0xee, 0xbe, 0x55, 0x56, 0x77, 0x3e, 0x44, 0x75, 0xca, 0xbe, 
	0x13, 0xe3, 0x07, 0x3f, 0x19, 0x2f, 0x96, 0x3d, 0x3e, 0x75, 0xbd, 0x3c, 
	0xbe, 0x68, 0xf6, 0x3e, 0x92, 0x02, 0x94, 0x3d, 0x46, 0x73, 0x67, 0xbe, 
	0xa1, 0xe8, 0xa6, 0x3e, 0x6c, 0x60, 0xdd, 0xbd, 0x17, 0xbd, 0x50, 0xbd, 
	0xf7, 0x3a, 0x2c, 0xbd, 0x8f, 0x4a, 0x9c, 0xbe, 0xd2, 0xb7, 0x88, 0xbe, 
	0x52, 0xc8, 0x2d, 0xbf, 0x9f, 0x05, 0xb7, 0xbd, 0x77, 0x41, 0xf7, 0x3e, 
	0x47, 0xf1, 0x4f, 0x3e, 0x7b, 0x8e, 0x8e, 0xbe, 0xb5, 0x74, 0x24, 0xbe, 
	0x57, 0x35, 0x1e, 0xbf, 0x1d, 0xff, 0x84, 0xbd, 0x81, 0x00, 0xd6, 0xbd, 
	0x84, 0x29, 0x3d, 0x3f, 0x70, 0xe4, 0xf3, 0xbd, 0x6f, 0xb8, 0x88, 0x3e, 
	0x25, 0x5a, 0xc0, 0x3e, 0xd8, 0xb5, 0xc6, 0xbe, 0xf2, 0x38, 0x07, 0x3e, 
	0x50, 0x4a, 0xe6, 0x3c, 0xd1, 0x16, 0x55, 0x3d, 0xc8, 0x3f, 0xc2, 0xbd, 
	0xf7, 0x1a, 0x5e, 0xbe, 0x70, 0x90, 0x0c, 0x3d, 0xa6, 0x2a, 0x27, 0xbf, 
	0x62, 0xb0, 0x05, 0x3f, 0x5a, 0xb4, 0xd2, 0xbd, 0xc9, 0x7f, 0xcb, 0xbd, 
	0x2e, 0xc7, 0x4e, 0xbd, 0xd2, 0x0a, 0x7c, 0xbc, 0xca, 0x93, 0xc0, 0x3e, 
	0x6a, 0xb0, 0xea, 0x3e, 0x81, 0x89, 0x77, 0xbe, 0x73, 0x5c, 0x05, 0xbe, 
	0xad, 0xe6, 0xcb, 0xbd, 0xc6, 0x76, 0x1f, 0xbd, 0xa1, 0xa8, 0xb2, 0xbe, 
	0x03, 0x5a, 0xf7, 0x3d, 0xf3, 0x87, 0x6a, 0xbe, 0xf9, 0x4c, 0x69, 0xbf, 
	0x26, 0x01, 0xf3, 0xbe, 0x82, 0xee, 0x7a, 0x3e, 0x4d, 0xd6, 0x5d, 0xbf, 
	0x90, 0xd3, 0x06, 0xbf, 0x49, 0x95, 0x44, 0xbe, 0xc6, 0xd1, 0xf3, 0xbc, 
	0x33, 0x43, 0xe5, 0xbe, 0x25, 0x5c, 0x0d, 0xbf, 0x29, 0xca, 0x2c, 0x3f, 
	0x76, 0x51, 0x67, 0xbd, 0xc0, 0x9e, 0x43, 0x3e, 0x26, 0xf7, 0xf2, 0x3e, 
	0x28, 0xe8, 0xdd, 0xbb, 0x59, 0x4a, 0x3c, 0x3e, 0x6c, 0x09, 0x0d, 0x3d, 
	0x9f, 0xe4, 0x4c, 0x3e, 0xd0, 0xed, 0xda, 0xbe, 0x40, 0x33, 0x28, 0xbe, 
	0x17, 0x4a, 0x95, 0x3e, 0xda, 0x62, 0x7f, 0x3e, 0x40, 0x75, 0xb5, 0xbd, 
	0x6a, 0xe8, 0x56, 0xbe, 0x49, 0x00, 0xce, 0xbe, 0x8d, 0x9b, 0x94, 0x3e, 
	0x30, 0x79, 0xfd, 0x3d, 0x81, 0x97, 0x2c, 0x3e, 0xce, 0xa4, 0x52, 0x3c, 
	0x9c, 0x8e, 0x0c, 0xbf, 0x71, 0x66, 0xd3, 0xbc, 0x6b, 0xe9, 0x66, 0xbe, 
	0x36, 0x1c, 0x87, 0x3c, 0x3d, 0x5e, 0x4b, 0x3e, 0x5a, 0xa6, 0xc7, 0x3e, 
	0xe1, 0xaa, 0x85, 0xbe, 0x38, 0x6b, 0x90, 0xbe, 0xa3, 0x98, 0x29, 0xbe, 
	0x41, 0x90, 0xd8, 0x3d, 0x03, 0x5e, 0xda, 0xbc, 0x13, 0x9d, 0x49, 0x3e, 
	0x9f, 0x2f, 0x18, 0xbe, 0x30, 0x09, 0x08, 0x3d, 0xe1, 0x93, 0x93, 0x3d, 
	0x2e, 0x92, 0xe4, 0x3c, 0xbf, 0x77, 0xda, 0xbe, 0x6f, 0xce, 0x01, 0xbf, 
	0x91, 0x7b, 0x2e, 0x3e, 0xd9, 0x2c, 0x32, 0xbe, 0x4c, 0x13, 0x24, 0x3f, 
	0x6d, 0x01, 0x3b, 0x3e, 0xef, 0x86, 0x06, 0xbe, 0x0e, 0x57, 0x9f, 0xbb, 
	0x4d, 0xfe, 0x89, 0x3e, 0x06, 0x03, 0x0f, 0xbe, 0xb1, 0x4d, 0x9f, 0xbe, 
	0x9f, 0xa7, 0xd9, 0x3d, 0x8b, 0xd2, 0xa9, 0x3d, 0xc9, 0xfe, 0xa7, 0x3c, 
	0xa1, 0x64, 0x5a, 0x3e, 0x40, 0xba, 0x2c, 0xbf, 0xd2, 0x78, 0x8d, 0xbd, 
	0xe7, 0x62, 0xad, 0x3e, 0x7f, 0x6c, 0xba, 0xbe, 0x90, 0x19, 0xdb, 0xbe, 
	0xab, 0xe6, 0x16, 0xbe, 0x17, 0x11, 0x97, 0x3e, 0xf3, 0xb6, 0x23, 0xbe, 
	0xbe, 0x1b, 0x70, 0x3e, 0xab, 0xe1, 0x87, 0x3d, 0x24, 0x99, 0xc9, 0xbe, 
	0xa8, 0x7a, 0x52, 0x3d, 0xf9, 0x29, 0x8b, 0xbe, 0xbb, 0x5a, 0x78, 0xbd, 
	0xc4, 0xd6, 0xab, 0x3c, 0x24, 0x9f, 0xb2, 0x3d, 0x42, 0xb3, 0x54, 0xbb, 
	0x22, 0x36, 0xfe, 0x3e, 0x59, 0x70, 0x0b, 0xbd, 0x95, 0x74, 0x2f, 0xbf, 
	0x71, 0x14, 0xa7, 0x3e, 0xd2, 0x60, 0xb2, 0x3e, 0xa7, 0x5d, 0xbc, 0x3e, 
	0x9f, 0xc4, 0x50, 0x3e, 0xc2, 0xb1, 0x20, 0x3e, 0x7c, 0xbd, 0x24, 0xbc, 
	0x0d, 0x0e, 0xed, 0xbe, 0xe4, 0xa4, 0x86, 0xbe, 0x38, 0xd6, 0xc3, 0xbd, 
	0xbf, 0x58, 0x1c, 0xbf, 0x33, 0xf1, 0x69, 0xbe, 0x6b, 0x7c, 0xaa, 0x3d, 
	0x60, 0x7e, 0x08, 0x3f, 0xb5, 0x15, 0x6b, 0xbe, 0x9d, 0xfe, 0x23, 0x3e, 
	0xe0, 0x5e, 0x80, 0x3e, 0xcd, 0x40, 0xad, 0x3e, 0xef, 0x0e, 0xd8, 0x3e, 
	0x44, 0xf0, 0xc7, 0x3e, 0x0e, 0x25, 0xaf, 0x3e, 0x60, 0xb4, 0xec, 0x3e, 
	0x2f, 0x4b, 0x45, 0x3e, 0xc6, 0x1e, 0x24, 0xbd, 0xf6, 0xf2, 0x85, 0x3e, 
	0x69, 0xe5, 0x3c, 0x3f, 0xe1, 0x25, 0x9a, 0x3d, 0xf2, 0x0d, 0x8f, 0x3c, 
	0x1c, 0xca, 0x55, 0xbe, 0x35, 0xe2, 0xb3, 0xbd, 0x86, 0x67, 0x5b, 0x3e, 
	0x53, 0xc7, 0xb7, 0xbd, 0xa5, 0x20, 0xb3, 0x3e, 0x7b, 0x07, 0x21, 0x3e, 
	0xa0, 0x22, 0x42, 0xbe, 0x94, 0x84, 0x6a, 0x3e, 0x80, 0x37, 0x96, 0x3e, 
	0x38, 0xed, 0x5d, 0x3d, 0xfe, 0x7b, 0xce, 0x3e, 0x42, 0xf6, 0x9f, 0xbe, 
	0x81, 0x02, 0x5d, 0x3c, 0xf4, 0x59, 0x2f, 0xbe, 0x48, 0x53, 0x16, 0xbe, 
	0xe9, 0x87, 0xcf, 0x3e, 0x68, 0x52, 0x78, 0xbd, 0x4e, 0x83, 0x02, 0xbe, 
	0x76, 0x91, 0x65, 0x3e, 0xa4, 0x87, 0x88, 0x3c, 0xde, 0xfa, 0xd1, 0x3e, 
	0x8f, 0x43, 0x5a, 0xbb, 0xac, 0x5f, 0x18, 0x3f, 0x4c, 0x5d, 0x1a, 0x3e, 
	0xc2, 0x16, 0x16, 0x3b, 0x2e, 0xc8, 0xe1, 0xbe, 0x20, 0x2a, 0x91, 0x3d, 
	0x1c, 0x9f, 0xb8, 0x3e, 0x93, 0x31, 0x21, 0xbd, 0x87, 0x1a, 0xa7, 0x3e, 
	0xb2, 0xa7, 0xdc, 0xbe, 0xd4, 0x99, 0xa9, 0x3d, 0x51, 0x95, 0xd8, 0x3c, 
	0x7a, 0x20, 0x0c, 0x3e, 0x94, 0xd8, 0x8e, 0x3e, 0x11, 0x18, 0x5f, 0x3e, 
	0xa6, 0x8b, 0xd1, 0xbe, 0x7c, 0xd9, 0x6a, 0xbd, 0xb8, 0x79, 0xbb, 0xbe, 
	0xdc, 0x19, 0x3a, 0xbe, 0x25, 0x37, 0x00, 0x3e, 0x26, 0x97, 0xad, 0xbc, 
	0xf2, 0x75, 0x8d, 0x3e, 0x5c, 0xaa, 0x5a, 0xbe, 0x16, 0x14, 0xfd, 0x3d, 
	0xb1, 0x86, 0xcc, 0x3e, 0xfe, 0x52, 0x4d, 0xbe, 0xcc, 0xcc, 0xde, 0xbe, 
	0xfe, 0x40, 0x81, 0x3e, 0xab, 0x71, 0x45, 0xbe, 0x89, 0xf6, 0x2b, 0xbd, 
	0x1a, 0x4d, 0x91, 0x3d, 0x27, 0x08, 0x6c, 0x3e, 0x72, 0x0d, 0xd1, 0xbd, 
	0x3b, 0x2a, 0xfa, 0x3d, 0x5b, 0x37, 0x12, 0x3e, 0x5b, 0xba, 0x59, 0xbd, 
	0x1e, 0xa3, 0x3b, 0xbe, 0x3c, 0x9e, 0xc3, 0xba, 0x9c, 0x4d, 0x06, 0xbf, 
	0xe4, 0xa1, 0x7b, 0x3d, 0x13, 0x97, 0x3e, 0xbe, 0x9d, 0x94, 0xfd, 0xbe, 
	0x5e, 0xd2, 0x04, 0xbf, 0xa2, 0x6a, 0x00, 0xbd, 0x5a, 0xeb, 0xd5, 0x3d, 
	0x14, 0x0d, 0xdd, 0xbe, 0x0f, 0x54, 0xb0, 0x3d, 0x1e, 0x2b, 0xd0, 0xbd, 
	0xbe, 0x37, 0x89, 0x3d, 0xa0, 0xbb, 0xfa, 0x3c, 0x21, 0x61, 0x7c, 0x3f, 
	0xba, 0x97, 0x46, 0x3e, 0x61, 0x71, 0xf3, 0x3d, 0xc7, 0x87, 0x25, 0x3f, 
	0x70, 0x8f, 0xbd, 0xbc, 0x71, 0xff, 0xa9, 0xbe, 0xc7, 0x7a, 0xa6, 0x3e, 
	0x79, 0x17, 0x87, 0x3d, 0x05, 0xf2, 0x04, 0xbf, 0xfd, 0xe4, 0xae, 0xbe, 
	0x86, 0x02, 0x4c, 0x3e, 0x62, 0x5f, 0x38, 0xbe, 0x4b, 0xee, 0x0f, 0xbf, 
	0x07, 0xae, 0x72, 0xbe, 0xde, 0x4a, 0x0d, 0xbf, 0xa7, 0xc7, 0x06, 0x3f, 
	0xaf, 0xcc, 0x0f, 0xbe, 0xbd, 0xf9, 0x76, 0xbe, 0xae, 0xb5, 0x65, 0xbe, 
	0x4d, 0x39, 0x0e, 0xbe, 0xee, 0xa9, 0x0d, 0x3e, 0xf3, 0x20, 0x97, 0xbe, 
	0xfa, 0x61, 0x0e, 0x3e, 0xb0, 0xb3, 0x9d, 0xbe, 0x8e, 0x33, 0xf7, 0x3e, 
	0x5a, 0x16, 0x0f, 0xbe, 0xf4, 0xfa, 0xe5, 0xbb, 0x20, 0xe3, 0x97, 0xbe, 
	0xcc, 0x39, 0x2f, 0x3f, 0x47, 0x46, 0x11, 0x3d, 0x19, 0x13, 0x88, 0xbd, 
	0x75, 0x25, 0x1b, 0x3d, 0x38, 0x75, 0x0f, 0x3f, 0xdb, 0xca, 0xef, 0x3d, 
	0xfe, 0x20, 0x1b, 0x3c, 0xc0, 0x05, 0x88, 0x3e, 0x8b, 0x6f, 0xdd, 0xbe, 
	0x93, 0xb4, 0x44, 0x3e, 0x92, 0xa9, 0xa8, 0x3e, 0x7a, 0x61, 0x8a, 0x3e, 
	0x88, 0xf5, 0xa9, 0x3e, 0x9c, 0xb7, 0x25, 0x3f, 0x00, 0xbd, 0x36, 0x3d, 
	0x6f, 0x54, 0x54, 0xbd, 0x0e, 0xbf, 0xa6, 0xbe, 0x1a, 0xc7, 0x9c, 0x3e, 
	0xfd, 0x09, 0xd4, 0x3e, 0x70, 0x41, 0xb7, 0x3e, 0x18, 0x0f, 0xff, 0xbb, 
	0x72, 0x07, 0x3d, 0x3d, 0x71, 0x1a, 0x9f, 0x3e, 0xca, 0xde, 0x1c, 0xbe, 
	0xce, 0xb2, 0xd3, 0xbd, 0x60, 0x11, 0x1b, 0xbe, 0x76, 0xbc, 0x8a, 0x3e, 
	0xaa, 0xb5, 0x45, 0x3e, 0xc0, 0x13, 0x98, 0x3d, 0xb2, 0xff, 0x18, 0x3e, 
	0x2c, 0x8d, 0x2c, 0xbf, 0xfc, 0x57, 0xd8, 0xbd, 0x4f, 0x40, 0x7e, 0xbd, 
	0x1d, 0x60, 0x67, 0x3e, 0xaa, 0x3b, 0xdc, 0x3d, 0xc9, 0x14, 0xfa, 0x3e, 
	0x55, 0x8c, 0x79, 0xbd, 0xa7, 0x40, 0xf0, 0x3b, 0x19, 0xdc, 0x41, 0x3e, 
	0x92, 0x38, 0xc7, 0x3e, 0xa9, 0xaf, 0x6f, 0x3c, 0xd1, 0x74, 0x91, 0xbe, 
	0xd3, 0xd5, 0xea, 0x3e, 0x9b, 0x2b, 0xab, 0xbe, 0x14, 0x79, 0x13, 0x3e, 
	0x64, 0xf2, 0x84, 0xbe, 0x2c, 0x77, 0x8e, 0x3e, 0x92, 0xf0, 0x4a, 0xbe, 
	0x40, 0xe3, 0x29, 0x3f, 0x12, 0xc3, 0xcb, 0x3e, 0x45, 0x0a, 0x28, 0x3f, 
	0xca, 0x03, 0x4d, 0x3f, 0xb4, 0x06, 0x63, 0xbd, 0x9c, 0x7a, 0x95, 0x3e, 
	0x9e, 0xe9, 0x0a, 0x3e, 0x89, 0x6d, 0x2d, 0x3e, 0xd4, 0xb4, 0x08, 0x3f, 
	0x92, 0x56, 0x82, 0xbe, 0x98, 0x8b, 0xce, 0x3d, 0x1d, 0xc3, 0x16, 0x3f, 
	0xb0, 0xf5, 0xb3, 0xbe, 0xf5, 0xe8, 0x48, 0x3e, 0x1f, 0x50, 0xe2, 0xbe, 
	0x66, 0x1d, 0x4a, 0xbe, 0x82, 0x81, 0x98, 0x3d, 0xef, 0xfa, 0xcb, 0x3e, 
	0xe1, 0x5b, 0x0a, 0xbe, 0xf3, 0x63, 0xb7, 0x3d, 0xd1, 0xac, 0xd2, 0xbe, 
	0x3d, 0xe8, 0xc1, 0xbd, 0x1d, 0x13, 0xef, 0xbd, 0xc3, 0x48, 0xf1, 0x3e, 
	0xf1, 0x69, 0xb0, 0x3d, 0x91, 0xe7, 0x71, 0xbe, 0x20, 0x7c, 0x06, 0xbe, 
	0xfe, 0xe0, 0x99, 0xbe, 0x2d, 0x73, 0x0a, 0x3e, 0x39, 0xd8, 0xbe, 0x3e, 
	0x96, 0xd9, 0x23, 0x3e, 0xd8, 0x59, 0xb3, 0x3e, 0x21, 0xb4, 0x1f, 0x3e, 
	0x3e, 0x0b, 0x4b, 0xbd, 0x29, 0x63, 0x96, 0x3d, 0xa4, 0x92, 0x17, 0xbe, 
	0x92, 0xe4, 0xfc, 0xbe, 0x9f, 0x11, 0xde, 0x3d, 0x7d, 0xa3, 0xb4, 0x3e, 
	0xd0, 0xdb, 0xcd, 0xbe, 0x8d, 0x8d, 0xfe, 0x3d, 0xc2, 0x64, 0x9d, 0x3e, 
	0xc9, 0x47, 0x38, 0x3e, 0x94, 0x22, 0x4b, 0xbe, 0x01, 0x55, 0x8b, 0x3e, 
	0x61, 0x2b, 0x78, 0xbe, 0x84, 0xb2, 0xc5, 0xbd, 0x38, 0xc9, 0xae, 0xbe, 
	0x03, 0xdd, 0x3b, 0x3e, 0xca, 0x9d, 0xeb, 0xbd, 0x58, 0x41, 0xd6, 0xbb, 
	0x40, 0x35, 0xe6, 0xbd, 0xf3, 0x02, 0x24, 0x3d, 0x09, 0x54, 0x5b, 0xbe, 
	0x2d, 0x6f, 0xd3, 0x3e, 0xf0, 0x99, 0x78, 0x3e, 0xfd, 0x91, 0x11, 0xbd, 
	0xc0, 0x77, 0xf8, 0x3e, 0x1c, 0xd0, 0xc5, 0x3d, 0x66, 0x03, 0x8a, 0xbe, 
	0x2c, 0xb7, 0x9b, 0x3d, 0xa3, 0x4f, 0xda, 0x3d, 0x48, 0xe9, 0xf3, 0x3d, 
	0x46, 0x5e, 0x07, 0x3e, 0x25, 0x78, 0x88, 0x3e, 0xf3, 0x24, 0x15, 0xbf, 
	0xc5, 0xcc, 0x93, 0xbe, 0x6d, 0x70, 0x12, 0x3f, 0x96, 0x60, 0xd4, 0xbd, 
	0xb0, 0xc0, 0xc5, 0xbe, 0x08, 0x2e, 0x3a, 0xbe, 0x91, 0xfd, 0x9a, 0x3e, 
	0xf6, 0x83, 0x03, 0xbf, 0x66, 0xa4, 0xb7, 0x3c, 0xfe, 0x6c, 0x12, 0xbd, 
	0x6c, 0x30, 0xd1, 0xbd, 0x81, 0x9e, 0xd2, 0x3e, 0x02, 0x82, 0x00, 0xbe, 
	0x2e, 0x2b, 0x70, 0xbe, 0x73, 0xee, 0xb7, 0x3e, 0x67, 0xb5, 0x03, 0x3e, 
	0x00, 0x83, 0x4d, 0x3e, 0xb6, 0xa2, 0xb1, 0xbe, 0x13, 0x60, 0x7f, 0xbe, 
	0x83, 0xec, 0x89, 0xbe, 0x70, 0x56, 0x98, 0x3e, 0xa9, 0x5b, 0xd1, 0xbe, 
	0xdd, 0x4f, 0x77, 0xbe, 0xc3, 0xc7, 0xf3, 0x3e, 0x7d, 0x54, 0x28, 0x3e, 
	0x5b, 0x41, 0x65, 0xbe, 0x08, 0x90, 0x9a, 0x3e, 0x54, 0xe9, 0x96, 0x3c, 
	0xac, 0xe5, 0x92, 0xbe, 0x70, 0x55, 0xad, 0xbe, 0x62, 0x12, 0x2e, 0xbe, 
	0x45, 0xfc, 0x73, 0x3e, 0xe2, 0xba, 0x89, 0xbe, 0x50, 0x58, 0xd1, 0xbd, 
	0x7d, 0x7b, 0xd9, 0x3e, 0xb3, 0xff, 0x94, 0x3e, 0xb6, 0xcb, 0x88, 0x3e, 
	0x43, 0x61, 0xd1, 0x3e, 0x4f, 0x94, 0x0b, 0xbe, 0x73, 0xe8, 0x1a, 0xbf, 
	0xff, 0xa1, 0xdf, 0xbd, 0x5e, 0xd4, 0x6d, 0x3c, 0x12, 0xc7, 0x79, 0xbd, 
	0x45, 0xb0, 0xa7, 0x3e, 0x29, 0x16, 0x4e, 0xbe, 0x82, 0xfc, 0x9e, 0xbe, 
	0xe1, 0xef, 0x2d, 0x3d, 0xc1, 0x89, 0x80, 0xbe, 0x68, 0xe8, 0x25, 0xbf, 
	0x5c, 0x2c, 0x3b, 0x3e, 0x58, 0xdd, 0x39, 0x3e, 0xe1, 0x17, 0xc4, 0x3e, 
	0xb3, 0x3c, 0x55, 0xbe, 0x8f, 0x86, 0x32, 0x3f, 0x34, 0x11, 0xea, 0x3c, 
	0xd5, 0xe4, 0x74, 0xbe, 0xa3, 0x9a, 0x01, 0x3e, 0xee, 0x58, 0xb7, 0x3e, 
	0xb9, 0x56, 0x0c, 0x3e, 0x9b, 0x8f, 0xe0, 0xbe, 0xb0, 0xe1, 0xdc, 0xbd, 
	0x3f, 0x36, 0x0c, 0xbe, 0x42, 0xf4, 0x17, 0x3f, 0x2a, 0x79, 0x29, 0xbf, 
	0xc9, 0x43, 0xa1, 0x3d, 0xf6, 0x76, 0x80, 0xbd, 0xd8, 0x5e, 0xc3, 0x3e, 
	0xce, 0x3c, 0x37, 0xbe, 0x92, 0x03, 0xbd, 0x3e, 0xbc, 0x24, 0x26, 0xbf, 
	0x24, 0x2b, 0x7b, 0xbe, 0x62, 0xb2, 0x03, 0xbe, 0x1c, 0xe9, 0x85, 0x3e, 
	0xbb, 0x75, 0x9c, 0x3e, 0x1d, 0x2f, 0xf7, 0x3d, 0x00, 0x05, 0x05, 0x3f, 
	0x18, 0x3e, 0x18, 0x3e, 0xdc, 0x41, 0x89, 0x3c, 0xe5, 0xf9, 0xbf, 0xbe, 
	0xc7, 0x91, 0xd5, 0x3d, 0x68, 0x77, 0xbb, 0xbe, 0xee, 0xb4, 0xdf, 0x3e, 
	0x1a, 0x33, 0xd8, 0x3d, 0x4f, 0xca, 0x69, 0xbf, 0x8a, 0xdc, 0x1d, 0xbe, 
	0x1c, 0x01, 0x29, 0xbf, 0xac, 0xf0, 0xa5, 0xbe, 0x6c, 0xdd, 0x01, 0x3e, 
	0x48, 0xc2, 0x3b, 0x3e, 0x17, 0xa2, 0x5e, 0x3e, 0x71, 0x5a, 0xba, 0x3e, 
	0xd2, 0x3d, 0x5a, 0xbe, 0x42, 0xc8, 0x18, 0xbd, 0x65, 0x2f, 0xfb, 0xbc, 
	0xf5, 0xb8, 0xa7, 0x3d, 0xdf, 0x4b, 0x62, 0x3e, 0x20, 0x03, 0x7d, 0x3e, 
	0x5f, 0xd1, 0x9f, 0xbb, 0x9c, 0xe5, 0x1f, 0xbe, 0xde, 0x4c, 0x00, 0x3f, 
	0xe8, 0x27, 0x59, 0xbe, 0x05, 0xec, 0x15, 0x3f, 0x90, 0xcb, 0x89, 0x3e, 
	0xc7, 0xd0, 0x95, 0x3e, 0x5c, 0xe6, 0x7a, 0x3e, 0xe8, 0xcf, 0xf3, 0xbe, 
	0x3d, 0x0b, 0x08, 0xbc, 0x5a, 0xa9, 0xe1, 0x3e, 0x8d, 0x9c, 0xec, 0x3d, 
	0x38, 0xdd, 0x52, 0x3d, 0xf6, 0x90, 0x05, 0x3e, 0x01, 0xe7, 0x7c, 0xbe, 
	0x90, 0x17, 0x0d, 0x3c, 0xa2, 0x14, 0xea, 0x3d, 0xbc, 0x35, 0xb5, 0x3e, 
	0xac, 0x6b, 0x3b, 0xbf, 0xfe, 0xdb, 0x08, 0xbe, 0x44, 0x61, 0xe2, 0xbe, 
	0x33, 0x72, 0x2f, 0xbf, 0x30, 0x68, 0x2b, 0x3f, 0x06, 0x53, 0xa6, 0xbe, 
	0x0f, 0x3f, 0xd7, 0x3c, 0xa8, 0x48, 0x9a, 0x3e, 0xd1, 0x0d, 0x16, 0x3f, 
	0x88, 0x72, 0xad, 0xbe, 0xe4, 0x89, 0xa1, 0x3e, 0x07, 0xb6, 0x03, 0x3e, 
	0x42, 0xe5, 0x7f, 0x3d, 0x26, 0x52, 0x54, 0x3d, 0x81, 0x66, 0xcf, 0xbd, 
	0xf6, 0xb0, 0x73, 0xbe, 0xd9, 0xa1, 0xb2, 0x3d, 0x1e, 0x5a, 0xfb, 0xbe, 
	0x4e, 0x74, 0x58, 0x3e, 0x4f, 0x3f, 0x4d, 0x3e, 0xc4, 0xbf, 0x5e, 0xbf, 
	0x43, 0x20, 0xf7, 0x3d, 0xb1, 0x58, 0x69, 0xbe, 0xe6, 0x20, 0xba, 0xbe, 
	0xfc, 0x46, 0x52, 0xbe, 0xd5, 0x0b, 0xbd, 0x3d, 0x2c, 0x92, 0x21, 0xbe, 
	0xd2, 0x7b, 0xa3, 0x3e, 0xc3, 0x36, 0xdc, 0xbe, 0x7e, 0x07, 0x19, 0xbf, 
	0x9b, 0xe5, 0x06, 0xbe, 0x0c, 0x56, 0xa5, 0xbe, 0xde, 0x73, 0x87, 0x3e, 
	0xa0, 0xe8, 0xa0, 0xbe, 0xe7, 0x6b, 0x94, 0x3e, 0xa6, 0xc7, 0x24, 0x3e, 
	0x5a, 0xac, 0x07, 0xbf, 0x93, 0xa7, 0xde, 0xbd, 0x24, 0x54, 0xcd, 0x3d, 
	0x82, 0xb7, 0x93, 0x3e, 0x2b, 0x98, 0x54, 0xbe, 0x4d, 0x75, 0xdf, 0xbe, 
	0xc2, 0x47, 0x45, 0xbe, 0xa3, 0x9c, 0x1e, 0xbe, 0xb6, 0xe4, 0xea, 0x3d, 
	0x79, 0x0e, 0x94, 0xbc, 0xc2, 0x2e, 0x18, 0x3f, 0x18, 0x70, 0x1d, 0xbe, 
	0xfe, 0x62, 0xba, 0xbe, 0x2f, 0x96, 0x41, 0xbe, 0xc2, 0x5e, 0x28, 0x3d, 
	0xd7, 0x30, 0x2f, 0x3e, 0x8d, 0xd5, 0x11, 0xbe, 0xa0, 0x8f, 0x09, 0xbd, 
	0x4d, 0x89, 0xe6, 0x3e, 0x55, 0xa1, 0xbb, 0xbe, 0xe2, 0x80, 0xa3, 0x3e, 
	0x39, 0x2e, 0x6c, 0x3e, 0x8f, 0xd5, 0x19, 0x3d, 0x3a, 0x17, 0x3e, 0xbd, 
	0x5a, 0xd4, 0x8a, 0x3e, 0x00, 0xd4, 0xc1, 0xbc, 0xf4, 0xff, 0xe4, 0xbe, 
	0x57, 0x9a, 0x94, 0x3d, 0x52, 0xd7, 0x37, 0xbf, 0xec, 0x21, 0x85, 0x3e, 
	0xbb, 0x65, 0xb1, 0xbd, 0x80, 0x29, 0x50, 0xbf, 0xa0, 0x81, 0x6f, 0x3e, 
	0x57, 0x70, 0xa2, 0xbc, 0x57, 0xff, 0x4c, 0x3e, 0x50, 0x32, 0xdb, 0x3d, 
	0x3e, 0xa2, 0xa4, 0xbe, 0x22, 0x92, 0x3a, 0x3e, 0x0d, 0xfe, 0xc8, 0xbe, 
	0x1a, 0x75, 0x53, 0x3d, 0x8b, 0x3d, 0x39, 0xbf, 0x30, 0x4a, 0x68, 0xbe, 
	0xe3, 0x29, 0x5b, 0x3d, 0x8d, 0xbd, 0x1d, 0xbe, 0x50, 0xb2, 0xf7, 0xbe, 
	0x29, 0xc8, 0xe1, 0xbe, 0x5a, 0xf8, 0xc1, 0x3b, 0x0d, 0x67, 0xca, 0xbe, 
	0x73, 0x12, 0xae, 0x3e, 0x86, 0x02, 0x59, 0x3c, 0x01, 0xbb, 0x05, 0xbf, 
	0x1b, 0x68, 0x31, 0xbf, 0xd1, 0x69, 0x70, 0x3e, 0xf9, 0xb7, 0x36, 0x3e, 
	0x85, 0xb5, 0x0a, 0x3f, 0xe1, 0x4f, 0xeb, 0x3e, 0xd8, 0x89, 0xb2, 0xbd, 
	0xbb, 0x58, 0x0b, 0xbe, 0x7b, 0xc1, 0xf6, 0x3d, 0x1b, 0x6f, 0x93, 0xbe, 
	0x6e, 0x62, 0xca, 0x3e, 0xc3, 0x41, 0x6d, 0xbb, 0xc0, 0x19, 0xdd, 0x3d, 
	0x56, 0x59, 0x43, 0x3e, 0x24, 0xb6, 0x9c, 0xbe, 0xd5, 0x1d, 0x94, 0xbe, 
	0x58, 0x8a, 0x8d, 0xbe, 0x68, 0xcc, 0x00, 0x3f, 0xfd, 0xac, 0x3d, 0xbf, 
	0x26, 0x46, 0xc0, 0x3e, 0xf8, 0x0f, 0xcd, 0x3b, 0xef, 0x59, 0x65, 0xbe, 
	0x8b, 0x6f, 0x8b, 0xbe, 0xfb, 0x7c, 0x4a, 0x3e, 0x83, 0xd5, 0xdc, 0xbe, 
	0x02, 0xd2, 0x18, 0x3f, 0x57, 0xdc, 0x42, 0xbf, 0x29, 0x4b, 0x20, 0xbd, 
	0xba, 0x7d, 0x35, 0xbf, 0x5b, 0xd5, 0x9d, 0xbd, 0xd6, 0x28, 0xb3, 0xbd, 
	0xf3, 0x11, 0x59, 0x3e, 0x3f, 0xa3, 0x6a, 0x3e, 0x71, 0x01, 0xa2, 0x3e, 
	0x86, 0x4e, 0x59, 0x3e, 0xb0, 0x60, 0x28, 0x3a, 0x32, 0xf9, 0x25, 0x3d, 
	0x16, 0x6e, 0x5d, 0x3e, 0xaf, 0x5a, 0x3c, 0x3f, 0x78, 0xab, 0x9c, 0xbd, 
	0x52, 0xc0, 0x08, 0xbf, 0x9c, 0xcf, 0xd1, 0xbe, 0x0e, 0xa6, 0x37, 0x3e, 
	0xa0, 0x6e, 0xa8, 0x3c, 0xca, 0x58, 0x80, 0x3d, 0x3c, 0x54, 0xb6, 0xb9, 
	0x7f, 0x20, 0x80, 0x3e, 0xa2, 0x56, 0x78, 0xbe, 0xe2, 0x10, 0x9b, 0x3e, 
	0xdf, 0x5e, 0x96, 0x3e, 0x67, 0x63, 0x2e, 0x3e, 0xea, 0xf2, 0x54, 0xbe, 
	0x9f, 0x39, 0x52, 0x3e, 0xff, 0xc6, 0xe0, 0xbc, 0x83, 0xe2, 0x9e, 0x3e, 
	0xcd, 0x79, 0xc2, 0xbe, 0x43, 0x1e, 0x85, 0xbf, 0xba, 0x78, 0x11, 0x3e, 
	0xd3, 0x31, 0x02, 0x3e, 0x44, 0x81, 0xb8, 0xbd, 0x6e, 0xd8, 0x86, 0x3e, 
	0x32, 0x22, 0xf2, 0x3d, 0xdc, 0x9a, 0x2e, 0xbe, 0x98, 0x74, 0x31, 0x3f, 
	0x93, 0x88, 0x6d, 0xbc, 0x56, 0xa7, 0x61, 0xbe, 0xca, 0x37, 0xd2, 0x3d, 
	0xa8, 0x8b, 0x07, 0x3f, 0x59, 0x44, 0x40, 0x3e, 0x9b, 0x9c, 0x49, 0x3e, 
	0x0e, 0xe2, 0xa4, 0xbe, 0x3a, 0x1b, 0xac, 0xbe, 0x13, 0x7b, 0xf9, 0xbd, 
	0x45, 0xbc, 0x98, 0x3d, 0xe3, 0x06, 0xf4, 0xbd, 0x0f, 0xa7, 0x87, 0xbe, 
	0xe3, 0xfa, 0x56, 0xbe, 0xf1, 0x85, 0x21, 0x3e, 0x2b, 0xcd, 0x5c, 0xbd, 
	0x3f, 0xfd, 0x65, 0xbe, 0xd1, 0x86, 0x61, 0xbd, 0xb2, 0x60, 0xb2, 0x3e, 
	0xac, 0xf0, 0x86, 0x3d, 0xf6, 0x71, 0xe6, 0x3d, 0xb7, 0x59, 0x09, 0x3f, 
	0xf1, 0x67, 0xfc, 0x3e, 0x48, 0x6f, 0x31, 0x3e, 0x7f, 0x7d, 0x9f, 0xbe, 
	0xb0, 0xf5, 0xcb, 0x3e, 0xfd, 0x0d, 0xa9, 0x3d, 0x70, 0xc2, 0x2a, 0x3f, 
	0xc9, 0xc4, 0x6d, 0x3e, 0x13, 0x58, 0xb9, 0x3d, 0xdc, 0xea, 0x69, 0x3e, 
	0x8d, 0xb2, 0x0e, 0x3f, 0xc8, 0x69, 0x2e, 0x3d, 0xe2, 0xbe, 0xef, 0x3d, 
	0x41, 0x10, 0x95, 0xbd, 0xb7, 0xc3, 0x67, 0xbf, 0xc4, 0x0b, 0x6b, 0xbe, 
	0x85, 0xab, 0xad, 0xbe, 0x2f, 0xa0, 0x5c, 0x3e, 0x97, 0xe3, 0x10, 0x3e, 
	0x69, 0x9d, 0x01, 0x3f, 0x45, 0xd0, 0x2b, 0xbe, 0x62, 0x76, 0xdd, 0x3e, 
	0x15, 0xb7, 0x83, 0x3e, 0x69, 0x37, 0xbc, 0x3e, 0x94, 0x58, 0x82, 0x3e, 
	0x09, 0xad, 0xf4, 0xbd, 0x02, 0x3d, 0xdb, 0x3e, 0xe1, 0x52, 0xa2, 0x3e, 
	0x57, 0x01, 0x1b, 0xbe, 0x55, 0xcf, 0xcd, 0x3e, 0x75, 0x76, 0x22, 0xbe, 
	0xa7, 0xac, 0xe3, 0xb9, 0x9d, 0xbd, 0xce, 0x3d, 0xf5, 0x29, 0x88, 0x3d, 
	0xd2, 0xcd, 0xba, 0x3e, 0xa5, 0x77, 0x03, 0x3e, 0xee, 0xf2, 0x30, 0x3e, 
	0x4b, 0x30, 0x4e, 0x3d, 0x7f, 0x22, 0x00, 0x3e, 0x46, 0x7d, 0x8b, 0xbe, 
	0xf2, 0x48, 0x87, 0x3d, 0x5c, 0xa2, 0x86, 0xbe, 0x8e, 0x04, 0x4b, 0xbe, 
	0x8c, 0x01, 0xc5, 0x3e, 0x40, 0x6a, 0x62, 0xbe, 0xca, 0x20, 0x6b, 0xbe, 
	0xdb, 0x48, 0x34, 0xbd, 0x08, 0x84, 0xe3, 0xbd, 0x62, 0x51, 0xc0, 0x3e, 
	0x44, 0x25, 0x10, 0xbd, 0x88, 0x11, 0x2e, 0x3e, 0xb6, 0xe0, 0xca, 0x3d, 
	0x20, 0xe8, 0xd8, 0xbe, 0x88, 0x26, 0x0b, 0xbe, 0x46, 0xaa, 0xfc, 0x3e, 
	0xb5, 0x3c, 0x55, 0xbe, 0x87, 0xa7, 0x80, 0xbe, 0x3a, 0xe3, 0x4d, 0xbd, 
	0xf2, 0xdc, 0x7a, 0x3e, 0xa9, 0x2e, 0x8d, 0xbe, 0x55, 0x12, 0xb1, 0x3e, 
	0x15, 0xe0, 0x20, 0xbe, 0xa5, 0x30, 0x9e, 0xbe, 0x13, 0xfa, 0xa8, 0x3e, 
	0x67, 0x54, 0xd9, 0xbd, 0x19, 0x22, 0x36, 0x3e, 0xe5, 0x90, 0xa6, 0x3e, 
	0x90, 0x7d, 0xbe, 0x3c, 0x54, 0x90, 0x00, 0xbe, 0x26, 0x65, 0x12, 0x3e, 
	0xf5, 0x43, 0x3d, 0x3e, 0x00, 0x1c, 0xd1, 0xbe, 0x5a, 0x50, 0x12, 0xbf, 
	0xca, 0x3c, 0x01, 0x3d, 0xff, 0x3a, 0x15, 0xbe, 0x2b, 0x6d, 0x4b, 0xbe, 
	0x74, 0xcc, 0x26, 0x3f, 0x89, 0x51, 0x35, 0x3e, 0x73, 0x3f, 0xcb, 0x3e, 
	0xc6, 0x48, 0xf5, 0xbd, 0xb0, 0x67, 0x31, 0x3e, 0x28, 0xf7, 0x0f, 0xbe, 
	0xab, 0xe1, 0x7a, 0xbc, 0x4b, 0xc1, 0xd4, 0xbd, 0x4a, 0x86, 0xab, 0x3e, 
	0xba, 0x7c, 0x83, 0xbe, 0x54, 0xd7, 0xdf, 0xbd, 0xfd, 0x08, 0xbf, 0x3e, 
	0x09, 0xe7, 0x2b, 0xbe, 0xe5, 0x56, 0x0f, 0xbd, 0xcc, 0x4d, 0x02, 0x3e, 
	0x16, 0xbf, 0x39, 0xbd, 0x78, 0x87, 0x93, 0xbe, 0xde, 0x6f, 0xdd, 0x3d, 
	0x53, 0x63, 0xe2, 0xbe, 0x4e, 0x9e, 0x38, 0xbe, 0xb6, 0xbe, 0x42, 0xbe, 
	0x3c, 0x8d, 0xeb, 0x3e, 0xb8, 0x52, 0xf8, 0xbb, 0x54, 0x0d, 0x13, 0xbe, 
	0x3f, 0x4b, 0x71, 0xbd, 0x79, 0x70, 0xc7, 0xbe, 0xd6, 0xb0, 0x53, 0xbe, 
	0xd7, 0xed, 0x19, 0xbf, 0x30, 0x51, 0x46, 0xbe, 0x18, 0x5b, 0x2f, 0xbf, 
	0xae, 0x16, 0x13, 0xbe, 0x2f, 0x71, 0xfa, 0x3d, 0x08, 0xce, 0x99, 0xbe, 
	0x6c, 0x19, 0x04, 0xbe, 0x72, 0xdb, 0x44, 0x3e, 0xfe, 0x44, 0x13, 0x3f, 
	0xe3, 0x02, 0xea, 0xbd, 0x9a, 0x3b, 0x63, 0x3e, 0xf7, 0x5b, 0xa9, 0xbe, 
	0x8c, 0x43, 0x2e, 0xbe, 0x18, 0xdc, 0x0f, 0xbd, 0x1f, 0x68, 0xd0, 0x3e, 
	0x88, 0x51, 0x05, 0xbf, 0xa1, 0x18, 0xf5, 0x3e, 0x9f, 0x89, 0x74, 0xbf, 
	0x2e, 0xa3, 0x74, 0xbf, 0xb9, 0x07, 0x21, 0xbe, 0xb4, 0xba, 0x96, 0x3d, 
	0x24, 0x95, 0xb9, 0xbc, 0x36, 0xdd, 0x4d, 0x3e, 0xba, 0xf5, 0x2f, 0x3f, 
	0xec, 0x9a, 0xfa, 0xbd, 0x15, 0xf6, 0x6c, 0xbd, 0xd1, 0x0f, 0x7e, 0x3d, 
	0xb6, 0x3e, 0x07, 0x3f, 0x0a, 0xba, 0x2d, 0xbf, 0x43, 0x4e, 0xb9, 0xbc, 
	0x4a, 0xff, 0xf8, 0xbd, 0xca, 0x00, 0x0e, 0x3e, 0x73, 0x5d, 0xee, 0xbd, 
	0x60, 0xb8, 0x31, 0x3e, 0xa9, 0xf5, 0x31, 0x3e, 0x76, 0xa7, 0xd3, 0xbe, 
	0x51, 0x10, 0xcf, 0x3e, 0xbf, 0xd4, 0xf4, 0xbe, 0x87, 0xfa, 0xe0, 0xbd, 
	0xe6, 0x1d, 0x07, 0x3e, 0x26, 0x11, 0xe4, 0x3e, 0x1e, 0x3f, 0x3a, 0x3e, 
	0x2d, 0xcc, 0x8d, 0xbe, 0xbc, 0xbf, 0x61, 0xbe, 0x81, 0xcc, 0x9a, 0xbe, 
	0xd5, 0xe7, 0x67, 0x3e, 0x8a, 0xcb, 0xc3, 0x3d, 0xba, 0x59, 0x63, 0x3e, 
	0xeb, 0x30, 0xb9, 0xbe, 0xb0, 0x91, 0x6f, 0xbe, 0x18, 0x03, 0xaf, 0xbd, 
	0x07, 0xe6, 0x00, 0xbe, 0x9c, 0x87, 0x11, 0x3f, 0x9e, 0xe8, 0x99, 0x3e, 
	0xce, 0x8f, 0xb3, 0x3d, 0x69, 0xa6, 0xb7, 0xbc, 0xbc, 0xe1, 0xbb, 0xbd, 
	0xba, 0x87, 0x13, 0x3e, 0xfa, 0xaa, 0xab, 0xbe, 0x62, 0x74, 0xa6, 0x3e, 
	0xfa, 0x94, 0xf9, 0xbd, 0x07, 0xce, 0xd8, 0xbd, 0x7d, 0x3b, 0x42, 0xbc, 
	0xf9, 0xfc, 0x8b, 0xbe, 0x11, 0xd9, 0x22, 0xbd, 0xe5, 0x40, 0xa3, 0xbd, 
	0x5b, 0x48, 0xf8, 0xbe, 0x1c, 0xf3, 0xa0, 0x3e, 0x63, 0x46, 0x71, 0x3d, 
	0x37, 0x51, 0x59, 0x3e, 0x0a, 0xfd, 0x43, 0xbe, 0x4e, 0x0d, 0x94, 0xbe, 
	0x2e, 0x0e, 0xc8, 0xbe, 0xd0, 0xa4, 0x9d, 0xbd, 0xc9, 0xe6, 0x06, 0x3e, 
	0xcc, 0x7f, 0xaa, 0xbe, 0x81, 0xf2, 0xac, 0xbe, 0xdf, 0x60, 0xc5, 0xbe, 
	0x1e, 0x16, 0x3e, 0x3e, 0x71, 0xfb, 0x34, 0x3e, 0x51, 0x3f, 0x07, 0xbe, 
	0x53, 0x52, 0xd2, 0xbe, 0x10, 0x9e, 0x1f, 0x3f, 0x45, 0x53, 0x27, 0xbc, 
	0x17, 0x28, 0xb7, 0x3e, 0x09, 0xc0, 0x02, 0xbd, 0x97, 0xe6, 0xf8, 0x3d, 
	0xa1, 0x51, 0x8d, 0xbc, 0x23, 0x6f, 0xba, 0xbd, 0x3f, 0x76, 0xef, 0x3e, 
	0xc9, 0x69, 0x37, 0xbd, 0x24, 0x96, 0x41, 0xbe, 0x85, 0xb0, 0x3d, 0xbe, 
	0x38, 0xb5, 0x4b, 0xbe, 0x4d, 0x0c, 0x9a, 0x3e, 0x83, 0x27, 0x9b, 0x3b, 
	0xf5, 0x22, 0x24, 0xbe, 0xc7, 0x01, 0xad, 0x3d, 0xfe, 0xba, 0x21, 0x3e, 
	0x47, 0x51, 0x1f, 0xbf, 0x89, 0x89, 0x9c, 0xba, 0x1d, 0xca, 0xb9, 0x3d, 
	0x4e, 0x66, 0x8f, 0x3e, 0x4f, 0x74, 0x1f, 0x3e, 0x87, 0x6f, 0xda, 0x3e, 
	0x4d, 0x33, 0x31, 0x3f, 0xb8, 0x75, 0x13, 0x3e, 0x43, 0x5d, 0x0a, 0xbe, 
	0xba, 0x83, 0x1a, 0xbf, 0xd7, 0x0f, 0x6b, 0xbe, 0x88, 0xaf, 0x4e, 0xbc, 
	0x4c, 0x2d, 0x33, 0x3d, 0x78, 0xd4, 0x08, 0x3e, 0x24, 0x2d, 0xc8, 0x3e, 
	0x6a, 0x1d, 0x24, 0xbd, 0x15, 0x3b, 0x9e, 0xbc, 0x2c, 0x1e, 0xa2, 0x3d, 
	0xd7, 0x10, 0xff, 0xbd, 0x6d, 0x75, 0x33, 0xbe, 0x47, 0x63, 0x85, 0xbc, 
	0x57, 0x1f, 0x98, 0x3e, 0x9e, 0x78, 0x43, 0x3f, 0x69, 0x90, 0x6c, 0xbe, 
	0x4b, 0x72, 0x9f, 0x3e, 0xca, 0x0d, 0xd3, 0x3d, 0x6c, 0x59, 0x74, 0x3e, 
	0x1f, 0x99, 0x91, 0xbe, 0x66, 0x8c, 0xb5, 0x3e, 0x46, 0xcf, 0x0e, 0xbe, 
	0xc0, 0x1a, 0x6e, 0x3c, 0x93, 0xb5, 0x15, 0x3f, 0x7f, 0x53, 0x14, 0x3f, 
	0x09, 0xfb, 0x0d, 0xbc, 0x9a, 0xc5, 0x26, 0xbe, 0x4e, 0xd0, 0xa9, 0x3d, 
	0x07, 0x83, 0x34, 0xbe, 0x1e, 0x9c, 0x5a, 0xbd, 0xc6, 0x24, 0x07, 0xbf, 
	0xa7, 0xa6, 0x3b, 0xbe, 0x31, 0x5c, 0x06, 0x3e, 0xc9, 0x95, 0xfe, 0xbe, 
	0xe8, 0x0d, 0xa6, 0xbe, 0x4e, 0x89, 0xf2, 0x3d, 0xcc, 0x67, 0x00, 0x3f, 
	0x86, 0x19, 0xd1, 0x3e, 0xed, 0x9c, 0x31, 0x3e, 0x93, 0x0b, 0x34, 0x3f, 
	0x03, 0xb5, 0xba, 0xbc, 0xa9, 0xc0, 0x65, 0x3e, 0x2d, 0xc4, 0x74, 0xbd, 
	0x22, 0x98, 0x04, 0x3e, 0x3c, 0xd7, 0x30, 0xbf, 0x43, 0xca, 0x69, 0xbe, 
	0x13, 0xb0, 0xcc, 0xbe, 0xbd, 0x82, 0x51, 0x3e, 0x3d, 0xa1, 0x04, 0xbf, 
	0xf6, 0x9a, 0x55, 0x3d, 0x53, 0x29, 0x94, 0xbe, 0x3b, 0x8c, 0x29, 0x3e, 
	0x41, 0xfe, 0x20, 0xbf, 0xa4, 0x02, 0x4c, 0xbe, 0xd5, 0xc9, 0x0d, 0xbf, 
	0x14, 0x46, 0x13, 0x3f, 0xd4, 0x4e, 0x61, 0x3e, 0x00, 0x2e, 0xa0, 0x3e, 
	0x3e, 0x94, 0x1f, 0x3f, 0x4e, 0x3f, 0x71, 0x3c, 0xb0, 0xf7, 0x9a, 0x3d, 
	0xfa, 0xdf, 0x21, 0xbe, 0xe7, 0x7e, 0x2b, 0xbe, 0x96, 0x02, 0x6b, 0xbd, 
	0x5e, 0x9d, 0xb3, 0xbc, 0x0e, 0xf5, 0x0a, 0x3e, 0xeb, 0x19, 0x06, 0x3f, 
	0x0b, 0x49, 0x91, 0xbd, 0x01, 0x70, 0x95, 0x3d, 0x61, 0x61, 0x79, 0x3e, 
	0xe0, 0x1d, 0x49, 0xbd, 0xd3, 0xa9, 0xb2, 0xbd, 0x4b, 0x03, 0x99, 0x3e, 
