// if having troubles with min/max, uncomment the following
//#undef min
//#undef max

#ifdef __has_attribute
#define HAVE_ATTRIBUTE(x) __has_attribute(x)
#else
#define HAVE_ATTRIBUTE(x) 0
#endif
#if HAVE_ATTRIBUTE(aligned) || (defined(__GNUC__) && !defined(__clang__))
#define DATA_ALIGN_ATTRIBUTE __attribute__((aligned(4)))
#else
#define DATA_ALIGN_ATTRIBUTE
#endif

const unsigned char rl_model[] DATA_ALIGN_ATTRIBUTE = {
  0x18, 0x00, 0x00, 0x00, 0x54, 0x46, 0x4c, 0x33, 0x00, 0x00, 0x0e, 0x00,
  0x18, 0x00, 0x04, 0x00, 0x08, 0x00, 0x0c, 0x00, 0x10, 0x00, 0x14, 0x00,
  0x0e, 0x00, 0x00, 0x00, 0x03, 0x00, 0x00, 0x00, 0x00, 0x17, 0x00, 0x00,
  0x0c, 0x00, 0x00, 0x00, 0x10, 0x00, 0x00, 0x00, 0x20, 0x00, 0x00, 0x00,
  0x01, 0x00, 0x00, 0x00, 0x40, 0x13, 0x00, 0x00, 0x0f, 0x00, 0x00, 0x00,
  0x54, 0x4f, 0x43, 0x4f, 0x20, 0x43, 0x6f, 0x6e, 0x76, 0x65, 0x72, 0x74,
  0x65, 0x64, 0x2e, 0x00, 0x0b, 0x00, 0x00, 0x00, 0x14, 0x13, 0x00, 0x00,
  0xfc, 0x12, 0x00, 0x00, 0x64, 0x12, 0x00, 0x00, 0x54, 0x11, 0x00, 0x00,
  0xc4, 0x10, 0x00, 0x00, 0xbc, 0x10, 0x00, 0x00, 0x2c, 0x10, 0x00, 0x00,
  0x24, 0x10, 0x00, 0x00, 0x1c, 0x10, 0x00, 0x00, 0x0c, 0x00, 0x00, 0x00,
  0x04, 0x00, 0x00, 0x00, 0xf0, 0xe9, 0xff, 0xff, 0x36, 0xed, 0xff, 0xff,
  0x04, 0x00, 0x00, 0x00, 0x00, 0x10, 0x00, 0x00, 0x1f, 0xfb, 0x9b, 0x3e,
  0x11, 0x53, 0x80, 0xbd, 0x95, 0xd6, 0x95, 0xbe, 0x49, 0xdd, 0x07, 0x3f,
  0x55, 0xf7, 0x66, 0x3e, 0xda, 0xea, 0x60, 0x3d, 0x39, 0xa2, 0x53, 0x3d,
  0xb9, 0xf2, 0xd2, 0x3d, 0x14, 0x8e, 0xe5, 0x3e, 0xcf, 0xce, 0x56, 0x3e,
  0x2e, 0x2a, 0x79, 0xbb, 0xd5, 0xbe, 0xe0, 0xbb, 0xaf, 0xc4, 0x0c, 0xbe,
  0xa8, 0x97, 0xa7, 0xbd, 0xd9, 0xe4, 0xb4, 0xbe, 0x7e, 0x84, 0x87, 0xbe,
  0x52, 0xc2, 0x9c, 0xbe, 0x44, 0xb3, 0xdc, 0xbd, 0xf3, 0x87, 0xe3, 0xbd,
  0x7e, 0x85, 0xb4, 0xbe, 0x4c, 0x7f, 0x44, 0xbc, 0x98, 0x9e, 0x2d, 0xbe,
  0xf1, 0x03, 0x68, 0xbd, 0x33, 0x3a, 0x97, 0x3d, 0x99, 0xf0, 0x23, 0x3f,
  0xcb, 0x62, 0xae, 0x3e, 0x36, 0x63, 0x18, 0xbd, 0x24, 0x9d, 0xd4, 0x3a,
  0x1f, 0xc1, 0x58, 0x3e, 0x16, 0x3c, 0x5e, 0x3d, 0x5c, 0x91, 0xbc, 0x3e,
  0x50, 0x2f, 0x50, 0xbe, 0xa0, 0x43, 0x64, 0x3e, 0xa4, 0x84, 0x82, 0xbe,
  0xb7, 0x4f, 0x28, 0x3e, 0xab, 0x27, 0x1c, 0x3d, 0x83, 0xb0, 0x6a, 0xbe,
  0xea, 0xd9, 0xf0, 0x3d, 0x03, 0xc7, 0x41, 0x3e, 0xd7, 0x53, 0x67, 0xbe,
  0xa3, 0xf6, 0x44, 0x3e, 0x08, 0x2b, 0xf4, 0xbd, 0xed, 0x63, 0x24, 0x3e,
  0x88, 0xe5, 0x2b, 0xbd, 0x17, 0x58, 0x6e, 0xbe, 0xa2, 0x98, 0xb4, 0xbe,
  0x5d, 0x5b, 0xf2, 0xbe, 0x25, 0x80, 0xb6, 0xbd, 0xc8, 0xb9, 0xbb, 0x3e,
  0x0c, 0x0a, 0x61, 0x3b, 0xe4, 0xdb, 0xe0, 0xbd, 0x06, 0x81, 0x5c, 0xbe,
  0x69, 0xf1, 0xbd, 0xbe, 0xb1, 0x14, 0x6a, 0xbd, 0xa4, 0x2f, 0xd5, 0xbd,
  0xb1, 0x3d, 0x3e, 0x3f, 0xe5, 0x31, 0xd4, 0xbe, 0xb9, 0xde, 0xfa, 0x3d,
  0xaf, 0x34, 0x3b, 0x3e, 0x4a, 0x30, 0xad, 0xbe, 0x67, 0xf7, 0xc2, 0x3d,
  0x71, 0xac, 0xd8, 0x3d, 0x35, 0xb8, 0x24, 0xbe, 0x2b, 0xa3, 0xc1, 0xbd,
  0xa3, 0x20, 0x5b, 0xbe, 0x95, 0xf4, 0x07, 0x3e, 0x2b, 0x04, 0xa6, 0xbe,
  0xd6, 0x83, 0xcd, 0x3e, 0xea, 0x89, 0x26, 0xbe, 0xcc, 0x47, 0x0a, 0x3e,
  0x46, 0xde, 0x4c, 0xbe, 0x27, 0xe2, 0x7b, 0xbc, 0x08, 0xe8, 0x80, 0x3e,
  0xbd, 0xd3, 0x81, 0x3e, 0x97, 0x0b, 0x17, 0x3d, 0x26, 0xda, 0xf7, 0xbd,
  0x4d, 0xb3, 0x74, 0x3e, 0xb8, 0x71, 0x1f, 0xbd, 0x7f, 0xc7, 0x3c, 0x3d,
  0x83, 0x1b, 0xfb, 0x3d, 0xe6, 0xba, 0x68, 0xbe, 0xaf, 0x0a, 0xff, 0xbe,
  0x13, 0xff, 0x8c, 0xbd, 0xda, 0x78, 0x7f, 0x3e, 0x54, 0xd5, 0x12, 0xbf,
  0x09, 0xae, 0x2a, 0xbe, 0xbc, 0xb9, 0x42, 0xbe, 0x4e, 0x62, 0x75, 0xbe,
  0x1f, 0x3e, 0x52, 0xbe, 0x15, 0xd9, 0x6c, 0xbe, 0x86, 0xcc, 0xff, 0x3e,
  0x5a, 0xfd, 0x4f, 0xbe, 0xae, 0x4c, 0x19, 0xbc, 0x06, 0x24, 0xa9, 0x3e,
  0x9e, 0xfc, 0x0b, 0xbe, 0x6e, 0xd3, 0x3d, 0x3e, 0x6c, 0x09, 0x0d, 0x3d,
  0xed, 0x0d, 0x68, 0x3e, 0xd0, 0xed, 0xda, 0xbe, 0x5b, 0xad, 0x8a, 0xbd,
  0xfc, 0x23, 0x95, 0x3e, 0xda, 0x62, 0x7f, 0x3e, 0xe9, 0xd7, 0xde, 0xbd,
  0xb4, 0x91, 0xff, 0xbd, 0x00, 0x98, 0xcc, 0xbe, 0xe1, 0xd6, 0x93, 0x3e,
  0xb6, 0x32, 0x07, 0x3e, 0x81, 0xcf, 0x88, 0x3e, 0x0b, 0x78, 0x6c, 0x3d,
  0x9c, 0x8e, 0x0c, 0xbf, 0x8c, 0xae, 0xb1, 0xbc, 0x16, 0x3a, 0x29, 0xbe,
  0x36, 0x1c, 0x87, 0x3c, 0x3d, 0x5e, 0x4b, 0x3e, 0x0b, 0xed, 0xc8, 0x3e,
  0xe1, 0xaa, 0x85, 0xbe, 0xed, 0xc7, 0x8d, 0xbe, 0xea, 0xcc, 0x31, 0xbe,
  0x25, 0xaf, 0x1b, 0x3e, 0x04, 0x52, 0x35, 0xbd, 0x13, 0x9d, 0x49, 0x3e,
  0x9f, 0x2f, 0x18, 0xbe, 0xea, 0x71, 0x41, 0x3d, 0x60, 0x2e, 0x75, 0x3c,
  0xd6, 0x1e, 0x15, 0x3d, 0x99, 0xae, 0x06, 0xbf, 0x6f, 0xce, 0x01, 0xbf,
  0x8f, 0x41, 0x6c, 0x3e, 0x4c, 0x64, 0xca, 0xbd, 0x50, 0x2d, 0x1e, 0x3f,
  0x79, 0xdc, 0x3c, 0xbe, 0xbe, 0x49, 0x92, 0xbe, 0x08, 0x4b, 0xc2, 0x3d,
  0x26, 0x71, 0x06, 0x3d, 0x37, 0x4c, 0x04, 0xbd, 0xdc, 0x78, 0xa8, 0xbe,
  0x33, 0x36, 0x95, 0xbc, 0xd9, 0xac, 0x21, 0x3e, 0xb2, 0x8b, 0xb3, 0x3d,
  0xe4, 0x8b, 0xfd, 0x3d, 0xa5, 0x09, 0x35, 0xbf, 0xc0, 0xd2, 0x18, 0xbe,
  0xee, 0x2a, 0xba, 0x3e, 0x28, 0x45, 0x57, 0xbe, 0x0b, 0xb2, 0x9b, 0xbe,
  0x5a, 0xd9, 0xff, 0xbe, 0x3f, 0x7f, 0xad, 0x3e, 0x15, 0xea, 0x69, 0xbd,
  0x5a, 0x99, 0x9d, 0x3e, 0xa0, 0x13, 0x34, 0x3e, 0x1f, 0x2f, 0x1b, 0xbe,
  0xed, 0xd3, 0x17, 0x3e, 0x78, 0x0e, 0xdb, 0xbe, 0x52, 0x02, 0x2d, 0xbe,
  0xc9, 0xb7, 0xe2, 0xbd, 0x51, 0xdc, 0x15, 0x3e, 0x8d, 0xad, 0x2a, 0xbd,
  0x6e, 0x41, 0x11, 0x3f, 0x3d, 0x03, 0x98, 0x3c, 0xd9, 0x68, 0xd9, 0xbe,
  0x7e, 0x09, 0x62, 0x3e, 0x45, 0x55, 0x90, 0x3e, 0x6f, 0x8f, 0x8e, 0x3d,
  0xee, 0x18, 0x9f, 0x3e, 0x70, 0xfe, 0x60, 0xbc, 0x43, 0x5a, 0x99, 0xbe,
  0x48, 0xab, 0x95, 0xbe, 0xdb, 0xbb, 0x86, 0xbe, 0x3f, 0xf1, 0xcd, 0xbd,
  0x97, 0x72, 0x03, 0xbf, 0x86, 0x66, 0xed, 0xbe, 0x19, 0xf7, 0x12, 0x3d,
  0x4a, 0x28, 0xb8, 0x3e, 0x15, 0xc4, 0x9d, 0xbe, 0x5c, 0xc3, 0xfd, 0xbd,
  0xa8, 0x3f, 0x1d, 0x3d, 0x72, 0xf8, 0xc4, 0x3c, 0x14, 0xea, 0xf1, 0x3d,
  0x19, 0x52, 0xf7, 0x3d, 0x92, 0x21, 0x2a, 0x3e, 0x57, 0xe7, 0x61, 0x3e,
  0xcc, 0x6f, 0x35, 0xbd, 0xa9, 0x6c, 0xa9, 0xbe, 0x48, 0xb2, 0xcd, 0x3e,
  0x7f, 0xe6, 0xee, 0x3e, 0xfa, 0x61, 0x67, 0xbe, 0x8a, 0xc7, 0x56, 0x3d,
  0xc1, 0x8f, 0x12, 0xbd, 0x9c, 0x08, 0x5e, 0x3d, 0xb8, 0x60, 0xd5, 0x3e,
  0x45, 0xb3, 0x69, 0xbe, 0xc8, 0x1d, 0xd3, 0x3d, 0xad, 0x22, 0x4d, 0x3e,
  0x42, 0xb3, 0xf6, 0xbd, 0xcf, 0x59, 0xd1, 0xbd, 0x67, 0x6d, 0x8e, 0x3e,
  0xfd, 0x45, 0xb1, 0xbc, 0x5c, 0x60, 0xe9, 0x3d, 0x5a, 0x38, 0xc1, 0xbe,
  0x01, 0x40, 0x9e, 0xbb, 0x3b, 0xda, 0x88, 0xbe, 0xaa, 0x4c, 0x26, 0xbe,
  0x02, 0xde, 0xcc, 0x3e, 0x4b, 0xd8, 0x27, 0xbd, 0x77, 0xa6, 0x12, 0xbe,
  0x98, 0x4b, 0x06, 0x3e, 0x61, 0x99, 0xbf, 0xbc, 0x08, 0x83, 0xd0, 0x3e,
  0x7e, 0x9f, 0xf1, 0xbb, 0x12, 0x8d, 0xc2, 0x3e, 0xb0, 0x88, 0xc0, 0x3d,
  0x31, 0x8b, 0x36, 0x3d, 0xd2, 0x96, 0xd9, 0xbe, 0xea, 0x2b, 0x14, 0xbd,
  0x08, 0xea, 0xbf, 0x3e, 0xbe, 0x34, 0xc5, 0xbd, 0x54, 0xe0, 0xd5, 0x3d,
  0x80, 0x2a, 0x07, 0xbf, 0xbc, 0xd8, 0x21, 0xbd, 0xee, 0x71, 0x9d, 0xbd,
  0xdf, 0x99, 0x3b, 0x3e, 0xe0, 0xb6, 0x7d, 0x3e, 0x86, 0x5e, 0x36, 0x3e,
  0x64, 0x3c, 0xc9, 0xbe, 0x7c, 0xd9, 0x6a, 0xbd, 0xb8, 0x79, 0xbb, 0xbe,
  0xdc, 0x19, 0x3a, 0xbe, 0x25, 0x37, 0x00, 0x3e, 0x26, 0x97, 0xad, 0xbc,
  0xf2, 0x75, 0x8d, 0x3e, 0x5c, 0xaa, 0x5a, 0xbe, 0x16, 0x14, 0xfd, 0x3d,
  0xb1, 0x86, 0xcc, 0x3e, 0xfe, 0x52, 0x4d, 0xbe, 0xcc, 0xcc, 0xde, 0xbe,
  0xfe, 0x40, 0x81, 0x3e, 0xab, 0x71, 0x45, 0xbe, 0x89, 0xf6, 0x2b, 0xbd,
  0x1a, 0x4d, 0x91, 0x3d, 0x27, 0x08, 0x6c, 0x3e, 0x72, 0x0d, 0xd1, 0xbd,
  0x3b, 0x2a, 0xfa, 0x3d, 0x5b, 0x37, 0x12, 0x3e, 0x5b, 0xba, 0x59, 0xbd,
  0x1e, 0xa3, 0x3b, 0xbe, 0x3c, 0x9e, 0xc3, 0xba, 0x9c, 0x4d, 0x06, 0xbf,
  0xe4, 0xa1, 0x7b, 0x3d, 0x13, 0x97, 0x3e, 0xbe, 0x9d, 0x94, 0xfd, 0xbe,
  0x5e, 0xd2, 0x04, 0xbf, 0xa2, 0x6a, 0x00, 0xbd, 0x5a, 0xeb, 0xd5, 0x3d,
  0x14, 0x0d, 0xdd, 0xbe, 0x0f, 0x54, 0xb0, 0x3d, 0x1e, 0x2b, 0xd0, 0xbd,
  0xaf, 0xf8, 0x2d, 0x3e, 0x42, 0x3c, 0x45, 0x3e, 0xf3, 0x2b, 0x2a, 0x3f,
  0x34, 0x68, 0xb9, 0x3d, 0x0b, 0x42, 0x92, 0xbd, 0xd9, 0xe8, 0xb1, 0x3e,
  0xd6, 0xb4, 0x42, 0x3e, 0x71, 0xff, 0xa9, 0xbe, 0x4e, 0xaa, 0x51, 0x3e,
  0xe4, 0x25, 0xc8, 0x3d, 0xfe, 0x40, 0x67, 0xbe, 0x2c, 0xe3, 0xae, 0xbe,
  0xf6, 0x47, 0x7f, 0x3e, 0x09, 0xef, 0x47, 0xbe, 0xdb, 0xfe, 0xa3, 0xbe,
  0x01, 0xb3, 0x72, 0xbe, 0x1d, 0x7a, 0x9f, 0xbe, 0x4d, 0xf5, 0xb7, 0x3e,
  0x5c, 0x3f, 0x34, 0x3d, 0x76, 0x04, 0xb7, 0xbd, 0x2c, 0xf3, 0xc6, 0x3d,
  0x15, 0x9f, 0x9c, 0xbd, 0x1c, 0xa8, 0x0d, 0x3e, 0x07, 0x61, 0x62, 0xbe,
  0x7a, 0x82, 0xab, 0xbd, 0x07, 0xe6, 0xc5, 0xbe, 0x2b, 0x43, 0x88, 0x3e,
  0x9d, 0x31, 0xdc, 0xbc, 0x22, 0xe4, 0x16, 0xbe, 0x3c, 0x31, 0x82, 0xbe,
  0xb6, 0x9d, 0xd1, 0x3e, 0x47, 0x46, 0x11, 0x3d, 0x30, 0x1d, 0x1e, 0xbe,
  0x8d, 0x5d, 0x49, 0x3d, 0x9d, 0x4e, 0x81, 0x3e, 0xe3, 0xd9, 0x28, 0x3e,
  0x78, 0xf7, 0xd1, 0xbd, 0x27, 0xb2, 0x67, 0xbc, 0xd9, 0xa6, 0x2f, 0xbe,
  0x80, 0x6b, 0x5c, 0x3e, 0x46, 0xcd, 0x91, 0x3e, 0x18, 0xed, 0xb1, 0x3e,
  0xc5, 0xbf, 0x6c, 0x3e, 0x37, 0x25, 0x2f, 0x3f, 0xdb, 0xa1, 0x26, 0x3c,
  0xfb, 0xbf, 0x19, 0xbe, 0xd8, 0x8a, 0xdb, 0xbe, 0xe4, 0xaf, 0x87, 0x3e,
  0x3f, 0xb4, 0xab, 0x3d, 0x79, 0xeb, 0x25, 0x3d, 0xa8, 0xab, 0xd5, 0xbd,
  0x40, 0xca, 0xf8, 0xbd, 0x59, 0x28, 0x5c, 0x3e, 0xc0, 0xbc, 0x71, 0xbe,
  0xfe, 0x9c, 0x19, 0xbe, 0xb6, 0xba, 0xd3, 0xbc, 0x6f, 0xae, 0xc7, 0x3c,
  0x53, 0x11, 0x92, 0xbd, 0x2c, 0x17, 0xb4, 0x3c, 0xbe, 0xfd, 0x71, 0x3e,
  0x76, 0x44, 0x0c, 0xbf, 0x56, 0x8f, 0x4a, 0x3d, 0xf7, 0x6f, 0xdb, 0xbd,
  0x67, 0xb9, 0x56, 0x3e, 0x4a, 0xfa, 0x11, 0xbd, 0xb2, 0x59, 0xb9, 0x3e,
  0x4b, 0x58, 0xd5, 0xbe, 0xc8, 0x33, 0x4d, 0x3e, 0xcd, 0x53, 0x30, 0x3d,
  0x4e, 0xf0, 0x67, 0x3d, 0x81, 0xce, 0x45, 0x3e, 0x5c, 0xef, 0x96, 0xbe,
  0xd9, 0x07, 0xfd, 0x3e, 0x0e, 0x8d, 0x38, 0xbe, 0x9c, 0xef, 0x2f, 0xbe,
  0xb6, 0x9c, 0xa8, 0xbe, 0x2c, 0xb5, 0xb7, 0x3c, 0xb0, 0x07, 0xa1, 0xbe,
  0xbb, 0x9f, 0x99, 0x3e, 0x10, 0x4f, 0xbf, 0x3d, 0xbd, 0xe3, 0x4f, 0x3e,
  0x73, 0xa2, 0xdf, 0x3e, 0xbb, 0x4f, 0xcf, 0xbe, 0x7b, 0x49, 0x20, 0x3d,
  0xb1, 0x49, 0x3f, 0xbe, 0x86, 0xbb, 0x1a, 0xbe, 0xeb, 0x7d, 0x00, 0x3e,
  0x1d, 0x4d, 0x9a, 0xbd, 0x6c, 0x9f, 0x51, 0xbe, 0x39, 0x41, 0x88, 0x3e,
  0xac, 0xd8, 0x6f, 0xbe, 0xd8, 0xac, 0xc7, 0x3e, 0xcb, 0x95, 0x45, 0xbe,
  0xd0, 0x48, 0x68, 0x3d, 0xb1, 0x51, 0x86, 0xbc, 0xbc, 0x6a, 0x25, 0x3d,
  0xec, 0xe8, 0x0a, 0xbe, 0xfc, 0x89, 0xb7, 0x3d, 0x61, 0x3b, 0xd5, 0xbe,
  0x3d, 0x89, 0xbe, 0xbd, 0xa1, 0xd5, 0xe6, 0xbd, 0xe5, 0xec, 0xef, 0x3e,
  0x2e, 0x51, 0xb1, 0x3d, 0x9d, 0xe7, 0x71, 0xbe, 0x21, 0xe6, 0x07, 0xbe,
  0x7a, 0xe5, 0x98, 0xbe, 0xdd, 0x84, 0x0a, 0x3e, 0x39, 0xd8, 0xbe, 0x3e,
  0x5d, 0x0d, 0x24, 0x3e, 0x15, 0xc0, 0xb1, 0x3e, 0x1e, 0x8b, 0x1f, 0x3e,
  0xb5, 0x0e, 0x4b, 0xbd, 0x6a, 0x13, 0x8e, 0x3d, 0x91, 0x56, 0x1d, 0xbe,
  0x2d, 0xf1, 0xfc, 0xbe, 0x8c, 0x57, 0xdc, 0x3d, 0xd9, 0xbc, 0xb4, 0x3e,
  0x95, 0xd4, 0xcd, 0xbe, 0x8b, 0x8d, 0xfe, 0x3d, 0x29, 0x79, 0x9e, 0x3e,
  0x74, 0xe4, 0x36, 0x3e, 0x7e, 0x59, 0x4b, 0xbe, 0xca, 0x72, 0x8c, 0x3e,
  0xf3, 0xa0, 0x76, 0xbe, 0x3d, 0xf1, 0xc1, 0xbd, 0xc1, 0x4c, 0xae, 0xbe,
  0x49, 0x31, 0x3d, 0x3e, 0xc2, 0x9d, 0xeb, 0xbd, 0x19, 0x96, 0x75, 0x3d,
  0x6c, 0x04, 0x9a, 0xbd, 0x39, 0x49, 0x4d, 0xbe, 0x52, 0x17, 0x82, 0xbe,
  0x8d, 0x0c, 0xd0, 0x3e, 0x4d, 0x87, 0x14, 0x3d, 0x25, 0xf9, 0x8d, 0xbd,
  0xee, 0x6f, 0xee, 0x3e, 0xf7, 0xf4, 0x9d, 0x3b, 0x5c, 0xb0, 0x8d, 0xbe,
  0xca, 0x64, 0x80, 0x3d, 0x97, 0x21, 0xdc, 0x3d, 0x7e, 0x37, 0xcd, 0x3d,
  0xcb, 0x9e, 0x2d, 0x3d, 0xc7, 0x43, 0x46, 0x3e, 0x0b, 0x33, 0xff, 0xbe,
  0xa2, 0xb3, 0x61, 0xbe, 0x08, 0xa5, 0xc8, 0x3e, 0x7e, 0x46, 0x33, 0xbe,
  0xe5, 0xcc, 0x9e, 0xbe, 0x86, 0xc0, 0x41, 0xbe, 0x32, 0x7f, 0x63, 0x3e,
  0xda, 0x50, 0xc3, 0xbe, 0x94, 0x65, 0x6c, 0x3c, 0x4d, 0x41, 0x44, 0xbe,
  0xf9, 0x30, 0x39, 0xbe, 0x06, 0xce, 0x99, 0x3e, 0x34, 0x82, 0x3a, 0xbe,
  0x51, 0x08, 0x67, 0xbe, 0x04, 0x55, 0xa4, 0x3e, 0xf2, 0xd5, 0x0d, 0x3e,
  0xec, 0x1e, 0xa0, 0x3e, 0x49, 0xa0, 0x93, 0xbe, 0x0f, 0xee, 0x96, 0xbe,
  0x40, 0x14, 0xc9, 0xbe, 0xfc, 0xb8, 0x24, 0x3e, 0x97, 0xa3, 0x79, 0xbe,
  0x4d, 0xe3, 0x8e, 0xbe, 0x5d, 0x23, 0xff, 0x3e, 0x89, 0xe7, 0x09, 0x3e,
  0x33, 0x3b, 0x99, 0xbe, 0x8f, 0xc5, 0x95, 0x3e, 0x7d, 0xf6, 0x11, 0xbd,
  0x1c, 0x16, 0x9e, 0xbe, 0x24, 0x4f, 0xbc, 0xbe, 0x60, 0xc0, 0x63, 0xbe,
  0xb4, 0x02, 0x2d, 0x3e, 0xbe, 0x0c, 0x34, 0xbe, 0xc8, 0x22, 0xe8, 0x3b,
  0x55, 0xc9, 0x6c, 0x3e, 0x25, 0xd6, 0x80, 0x3e, 0x94, 0xab, 0xb0, 0x3e,
  0x3b, 0xd1, 0xb5, 0x3e, 0x20, 0x3f, 0x97, 0xbd, 0xb0, 0x0b, 0xdd, 0xbe,
  0x02, 0xf6, 0xbc, 0xbd, 0x8e, 0xb4, 0xae, 0xba, 0x9f, 0xad, 0xe2, 0xbd,
  0x87, 0x09, 0x73, 0x3e, 0x7a, 0xe6, 0x6d, 0xbe, 0x77, 0xc6, 0xb0, 0xbe,
  0x2d, 0xde, 0x0a, 0xbc, 0xbb, 0x9e, 0xf2, 0xbd, 0x40, 0x54, 0xe0, 0xbe,
  0xac, 0xdd, 0x44, 0x3e, 0xc5, 0xf7, 0xa9, 0x3e, 0x9c, 0x74, 0xa8, 0x3c,
  0xa8, 0xc3, 0x8e, 0xbe, 0x4c, 0x4d, 0xde, 0x3e, 0x61, 0xa7, 0xa8, 0xbe,
  0x93, 0xb8, 0x16, 0xbd, 0xa3, 0x9a, 0x01, 0x3e, 0x13, 0x91, 0x64, 0x3e,
  0xd2, 0xab, 0x1b, 0x3e, 0x36, 0x33, 0x2a, 0xbe, 0x81, 0xd8, 0xdc, 0xbd,
  0x76, 0xc7, 0xa5, 0xbd, 0x39, 0x0b, 0x07, 0x3f, 0xb8, 0x4a, 0xcc, 0xbe,
  0xc9, 0x43, 0xa1, 0x3d, 0x96, 0xe0, 0xca, 0xbd, 0xfc, 0xef, 0x5e, 0x3e,
  0x13, 0x28, 0xe6, 0x3c, 0x90, 0x5c, 0xb8, 0x3e, 0xfb, 0xe3, 0xad, 0xbe,
  0x80, 0x1c, 0x4b, 0xbe, 0x62, 0xb2, 0x03, 0xbe, 0xe5, 0x5f, 0xa1, 0x3e,
  0xbb, 0x58, 0xce, 0x3c, 0x34, 0xa5, 0x32, 0x3c, 0x5f, 0x3f, 0x96, 0x3e,
  0x10, 0x36, 0x6c, 0x3e, 0x54, 0x4d, 0x5a, 0xbd, 0xda, 0x7b, 0x82, 0xbe,
  0x66, 0xce, 0x0a, 0xbe, 0x68, 0x77, 0xbb, 0xbe, 0xe7, 0xb4, 0xdf, 0x3e,
  0x8d, 0x63, 0x80, 0x3c, 0x5f, 0xa7, 0x04, 0xbf, 0xd8, 0x5c, 0x83, 0xbe,
  0xef, 0x9c, 0xcf, 0xbe, 0x62, 0xb8, 0xc1, 0x3c, 0xba, 0x39, 0x59, 0xbe,
  0xd1, 0xc3, 0x2c, 0x3e, 0x1e, 0x9e, 0x69, 0x3e, 0xab, 0x3f, 0x15, 0x3e,
  0xfd, 0x08, 0x07, 0xbf, 0xcd, 0x94, 0xe8, 0x3c, 0x54, 0x7e, 0xad, 0x3c,
  0xca, 0xa7, 0xa6, 0x3d, 0xa2, 0x76, 0x60, 0xbd, 0xeb, 0x40, 0x8f, 0x3e,
  0x9a, 0x02, 0xa0, 0xbb, 0x9c, 0x75, 0xd8, 0xbc, 0x7e, 0xb5, 0x93, 0x3e,
  0xe2, 0x26, 0x59, 0xbe, 0x4a, 0x26, 0x8f, 0x3e, 0xcc, 0x54, 0x5b, 0x3e,
  0x54, 0xed, 0xb4, 0x3e, 0x4e, 0xca, 0xae, 0x3c, 0x60, 0x19, 0x78, 0xbe,
  0xee, 0x6f, 0xe7, 0x3c, 0x8d, 0x06, 0xba, 0x3e, 0xda, 0x2a, 0xff, 0xbd,
  0xd7, 0x6b, 0x83, 0xbd, 0x68, 0x66, 0xe4, 0xbd, 0x35, 0xcd, 0x09, 0x3c,
  0x6b, 0x8d, 0xae, 0x3d, 0x1c, 0xd9, 0xf5, 0x3d, 0x42, 0x07, 0x57, 0x3e,
  0x35, 0xb7, 0x98, 0xbe, 0x5d, 0xab, 0xe1, 0xbe, 0x8d, 0xe8, 0xb2, 0xbd,
  0xfb, 0x05, 0x8d, 0xbe, 0x3a, 0x68, 0x07, 0x3f, 0x5d, 0x3f, 0xb7, 0xbe,
  0x3e, 0xde, 0xc6, 0xbc, 0x1f, 0x9c, 0x45, 0x3e, 0x56, 0xe6, 0xd3, 0x3e,
  0xb8, 0xe6, 0xe3, 0xbe, 0xfc, 0xdc, 0xa1, 0x3e, 0xb0, 0x54, 0xfb, 0x3d,
  0x7f, 0x2f, 0xce, 0xbd, 0x00, 0xdc, 0x9b, 0x3e, 0xd9, 0x94, 0xbb, 0xbd,
  0xcb, 0x58, 0x1c, 0xbe, 0xe8, 0x35, 0xcd, 0xbb, 0x06, 0x3a, 0xe9, 0xbe,
  0x5c, 0x21, 0x49, 0x3d, 0xf4, 0x66, 0x9b, 0x3e, 0xdb, 0x4b, 0xf3, 0xbe,
  0xe9, 0x62, 0x11, 0x3d, 0x4d, 0x0b, 0x58, 0x3d, 0x27, 0x03, 0xc6, 0xbe,
  0x98, 0xe1, 0xb5, 0xbe, 0xd9, 0x0d, 0xb5, 0x3b, 0xf8, 0x00, 0x99, 0xbe,
  0x07, 0xf7, 0x8c, 0x3e, 0x52, 0x0f, 0x48, 0x3c, 0x26, 0x48, 0x6d, 0xbe,
  0x68, 0x01, 0xdd, 0xbd, 0x8d, 0x04, 0x8b, 0xbe, 0xec, 0xab, 0xc5, 0x3d,
  0xac, 0x60, 0x74, 0xbe, 0xe6, 0x53, 0x40, 0x3e, 0x76, 0x40, 0x57, 0xba,
  0x13, 0x71, 0xae, 0xbe, 0x3b, 0xa1, 0xdd, 0xbd, 0x3b, 0xd5, 0x67, 0x3d,
  0xb6, 0x28, 0xd2, 0x3e, 0xda, 0xb1, 0x56, 0xbd, 0x04, 0xee, 0xd7, 0xbe,
  0x9b, 0x37, 0x20, 0xbe, 0xd1, 0x76, 0x5d, 0xbe, 0xb3, 0xa8, 0x6e, 0x3e,
  0x5f, 0x1c, 0x9e, 0x3d, 0x72, 0x8a, 0x17, 0x3f, 0x97, 0xf0, 0x5a, 0xbe,
  0x7c, 0xf5, 0x8a, 0xbe, 0x55, 0xf4, 0x34, 0xbe, 0x36, 0x66, 0x57, 0x3e,
  0xca, 0xc1, 0x50, 0x3e, 0x94, 0x48, 0x66, 0xbd, 0x55, 0x32, 0xb0, 0x3d,
  0xa3, 0xfd, 0xa5, 0x3e, 0x31, 0xc5, 0xda, 0xbe, 0x0c, 0x75, 0x7f, 0x3e,
  0xf6, 0xe4, 0xaf, 0x3e, 0xb5, 0x39, 0x97, 0x3d, 0x85, 0xa0, 0xfb, 0x3d,
  0xa4, 0x18, 0x5c, 0x3e, 0x43, 0xdb, 0x9b, 0xbc, 0xe3, 0x5d, 0xe4, 0xbe,
  0x09, 0x18, 0x6b, 0x3d, 0x55, 0x0e, 0x9c, 0xbe, 0xeb, 0xc3, 0xea, 0x3d,
  0x80, 0x84, 0x1e, 0xbd, 0x79, 0xe0, 0xf5, 0xbe, 0xdf, 0xf6, 0x1e, 0xbb,
  0x57, 0x70, 0xa2, 0xbc, 0xff, 0xdf, 0xc3, 0x3d, 0x62, 0x11, 0x13, 0xbe,
  0xd2, 0x50, 0x71, 0xbe, 0x24, 0xfa, 0x4f, 0x3e, 0x55, 0xb2, 0x2a, 0xbe,
  0xfb, 0x4d, 0x52, 0x3d, 0x0b, 0xf3, 0x08, 0xbf, 0x04, 0x1b, 0x62, 0xbe,
  0x34, 0x2f, 0x60, 0x3d, 0xd1, 0xc0, 0x99, 0x3e, 0xe0, 0xa5, 0x8c, 0xbe,
  0x09, 0x41, 0xe0, 0xbe, 0x89, 0x91, 0xe0, 0x3d, 0x72, 0xbd, 0x27, 0xbe,
  0x59, 0x84, 0xb2, 0x3e, 0xcd, 0xfc, 0x7a, 0xbe, 0xf4, 0x3b, 0x55, 0xbe,
  0xdd, 0x21, 0xba, 0xbe, 0xd0, 0x95, 0x96, 0x3d, 0x81, 0xcd, 0x9e, 0xbc,
  0x2b, 0xca, 0xa4, 0x3e, 0x64, 0x9d, 0x89, 0x3e, 0x99, 0xd4, 0xe7, 0xbd,
  0x8c, 0xb3, 0x02, 0xbe, 0xfc, 0xb3, 0x40, 0x3e, 0x53, 0xc2, 0xe4, 0xbd,
  0xe2, 0x66, 0xa2, 0xbb, 0xb1, 0xfe, 0xe4, 0xbd, 0xd9, 0x93, 0x14, 0xbe,
  0x5a, 0x0e, 0x46, 0xbe, 0x0c, 0x1f, 0x0f, 0xbe, 0xd5, 0x1d, 0x94, 0xbe,
  0x81, 0x77, 0xe0, 0xbe, 0x20, 0x6b, 0x02, 0x3f, 0x1c, 0x11, 0xdb, 0xbe,
  0x7b, 0x48, 0xc0, 0x3e, 0x78, 0xcb, 0x70, 0x3d, 0x59, 0x96, 0x95, 0xbe,
  0x36, 0x80, 0x05, 0x3c, 0x59, 0x80, 0x4a, 0x3e, 0xdb, 0xfd, 0xab, 0xbe,
  0xac, 0x19, 0xd0, 0x3e, 0xdb, 0x2a, 0x0c, 0xbf, 0xd0, 0xf0, 0x00, 0x3d,
  0x26, 0xb0, 0xb9, 0xbe, 0x7c, 0x8b, 0x1b, 0xbd, 0xd6, 0x28, 0xb3, 0xbd,
  0xba, 0xc5, 0x84, 0x3e, 0x11, 0xbd, 0x88, 0xbd, 0xa2, 0xe5, 0x60, 0x3e,
  0x01, 0x84, 0x15, 0xbd, 0x26, 0x45, 0xf9, 0x3c, 0x21, 0x3f, 0x19, 0xbd,
  0xa8, 0x89, 0x8d, 0x3e, 0x13, 0x48, 0xed, 0x3e, 0x78, 0xab, 0x9c, 0xbd,
  0xcc, 0x0b, 0xc4, 0xbe, 0x34, 0x65, 0xe6, 0xbe, 0x84, 0xce, 0xb7, 0xbd,
  0xf4, 0x74, 0x4c, 0xbe, 0x66, 0xac, 0x15, 0x3e, 0x0c, 0xa4, 0x5f, 0xbe,
  0x90, 0xa1, 0x2a, 0x3e, 0x23, 0xf5, 0x95, 0xbe, 0xb2, 0x31, 0x3c, 0x3e,
  0x76, 0xe2, 0x44, 0x3e, 0x3b, 0x9d, 0x3d, 0x3d, 0x93, 0xe1, 0xc4, 0xbe,
  0xd3, 0x1e, 0x01, 0x3e, 0xe8, 0x73, 0x9e, 0xbd, 0x46, 0x34, 0x05, 0x3e,
  0x15, 0x2c, 0x27, 0xbe, 0xcd, 0xdf, 0x3d, 0xbf, 0x99, 0x2b, 0xed, 0xbd,
  0x46, 0x22, 0x66, 0xbc, 0x5a, 0xb5, 0x15, 0x3e, 0x87, 0x26, 0x1b, 0x3e,
  0x6e, 0xea, 0x5d, 0x3d, 0xca, 0x05, 0x4a, 0x3e, 0x51, 0xe4, 0x19, 0x3f,
  0x36, 0x25, 0x13, 0xbe, 0x4d, 0x41, 0xb9, 0xbe, 0x7d, 0xab, 0x83, 0xbd,
  0xfd, 0x73, 0xe3, 0x3e, 0x4e, 0x72, 0xce, 0x3d, 0x19, 0x05, 0xfa, 0x3d,
  0x16, 0xde, 0x8c, 0xbe, 0x97, 0x67, 0x08, 0xbd, 0x2a, 0xa8, 0xc7, 0xbd,
  0x9c, 0xf5, 0xb1, 0xbd, 0x84, 0x8f, 0x56, 0xbe, 0x79, 0x93, 0x34, 0xbe,
  0xb1, 0x6e, 0x4e, 0xbe, 0xfe, 0xe7, 0xb6, 0x3d, 0xa5, 0x5c, 0xbe, 0xbc,
  0x47, 0x97, 0x99, 0xbe, 0xd7, 0x49, 0x84, 0x3c, 0xbb, 0x59, 0xe6, 0x3e,
  0x3b, 0xab, 0x28, 0xbe, 0x93, 0x55, 0xd9, 0x3c, 0x0b, 0xe1, 0x1e, 0x3e,
  0x0b, 0x6e, 0xde, 0x3e, 0x8b, 0xd4, 0xc3, 0xbd, 0x2b, 0x53, 0x4e, 0xbf,
  0x98, 0xda, 0xb0, 0x3e, 0xf0, 0xe4, 0x86, 0xbb, 0xb4, 0xb3, 0xaa, 0x3e,
  0x00, 0xce, 0x4a, 0x3e, 0x44, 0xc8, 0x13, 0xbe, 0xec, 0x2e, 0x23, 0xbd,
  0x65, 0x02, 0xba, 0xbd, 0xbf, 0x87, 0x2d, 0x3e, 0x80, 0x30, 0x05, 0x3d,
  0x0f, 0xd9, 0xdc, 0xbd, 0x22, 0xaf, 0x08, 0xbf, 0x29, 0x81, 0x52, 0xbe,
  0x70, 0x67, 0x08, 0xbd, 0xcb, 0x6e, 0xd2, 0x3e, 0x04, 0x75, 0x36, 0x3e,
  0x0a, 0x28, 0x8b, 0x3a, 0x16, 0xf1, 0xe7, 0xbd, 0x1b, 0xf6, 0xdb, 0x3e,
  0xa3, 0x35, 0x1d, 0x3e, 0x6b, 0x9d, 0x92, 0x3e, 0x9d, 0xf9, 0xa6, 0x3e,
  0xec, 0xe5, 0x34, 0xbe, 0x78, 0x0b, 0xa1, 0x3e, 0x57, 0x35, 0x8d, 0x3e,
  0x29, 0x98, 0x41, 0xbe, 0x21, 0x84, 0xab, 0x3e, 0xcb, 0xa9, 0x8c, 0xbe,
  0x5a, 0x7b, 0xce, 0xbc, 0x37, 0x2d, 0x5a, 0x3d, 0x93, 0xf5, 0x3d, 0x3d,
  0x19, 0x3d, 0x56, 0x3e, 0xbc, 0x98, 0x1a, 0x3e, 0xb2, 0xf2, 0x95, 0x3e,
  0x7f, 0x53, 0x86, 0xbd, 0x2c, 0xd4, 0x82, 0xbc, 0x78, 0xfc, 0x45, 0xbe,
  0xb4, 0xca, 0x30, 0xbd, 0xdf, 0x2f, 0xc0, 0xbe, 0x62, 0xd8, 0xe6, 0xbd,
  0x88, 0x3a, 0x9f, 0x3e, 0x99, 0x32, 0x86, 0xbe, 0x51, 0xaf, 0x82, 0xbe,
  0x35, 0xf8, 0xac, 0xbd, 0x0d, 0xa2, 0x5e, 0xbe, 0x46, 0x8d, 0xbf, 0x3e,
  0x2a, 0xad, 0x24, 0xbe, 0x9f, 0xd8, 0x77, 0x3e, 0x0b, 0x2c, 0x52, 0x3e,
  0x4b, 0xdb, 0xb7, 0xbe, 0xbf, 0x73, 0x46, 0xbd, 0xcd, 0xaf, 0x77, 0x3e,
  0x39, 0x97, 0x6d, 0xbe, 0x8c, 0x84, 0x96, 0xbe, 0x52, 0x68, 0x8f, 0xbe,
  0x2b, 0x50, 0xa7, 0x3e, 0x89, 0x2e, 0x95, 0xbe, 0xae, 0x51, 0x80, 0x3e,
  0xab, 0x28, 0xf7, 0xbd, 0x05, 0xa6, 0x80, 0xbe, 0x4c, 0xec, 0xb0, 0x3e,
  0xf1, 0x51, 0xca, 0xbd, 0x86, 0x45, 0x8a, 0x3d, 0x8f, 0x31, 0xae, 0x3e,
  0xaa, 0x00, 0xa5, 0x3d, 0x5f, 0xfb, 0xa2, 0xbd, 0xb9, 0xf7, 0xcb, 0xbc,
  0xb1, 0xc8, 0x3e, 0x3e, 0x68, 0x11, 0xb2, 0xbe, 0x3e, 0x96, 0xfe, 0xbe,
  0x14, 0xb9, 0x9b, 0xbc, 0x67, 0x5e, 0x45, 0xbd, 0xea, 0xb2, 0x20, 0xbe,
  0x5d, 0x36, 0xf3, 0x3e, 0x4c, 0x1e, 0xbd, 0x3d, 0x0e, 0x02, 0x8f, 0x3e,
  0x75, 0x28, 0xd2, 0xbd, 0x53, 0x2b, 0x50, 0x3e, 0x29, 0xab, 0xa3, 0xbd,
  0xd2, 0x47, 0xf1, 0xbc, 0x27, 0x95, 0x1e, 0xbc, 0x76, 0x2e, 0x9f, 0x3e,
  0x0a, 0xb1, 0x71, 0xbe, 0x05, 0x5b, 0xf7, 0x3d, 0x47, 0x08, 0x9f, 0x3e,
  0x3a, 0x6d, 0x19, 0xbe, 0xf5, 0x6d, 0xf0, 0x3d, 0xa6, 0xfb, 0xa3, 0x3c,
  0x16, 0xbf, 0x39, 0xbd, 0xc4, 0x62, 0xc5, 0xbe, 0x48, 0x41, 0x40, 0xbd,
  0x03, 0x09, 0xaf, 0xbe, 0x60, 0x2e, 0x29, 0xbe, 0x17, 0x32, 0x60, 0xbc,
  0x9a, 0xf8, 0xc2, 0x3e, 0x7f, 0xff, 0x32, 0x3e, 0x5f, 0xa2, 0x0c, 0xbe,
  0x7d, 0xbf, 0x15, 0xbe, 0x34, 0x14, 0x24, 0xbe, 0xf7, 0xfa, 0x9c, 0xbc,
  0xa1, 0x99, 0x24, 0xbf, 0x32, 0x75, 0xa5, 0xbd, 0x75, 0x08, 0x04, 0xbf,
  0x44, 0xe1, 0x0a, 0xbe, 0xbf, 0xd6, 0xa6, 0xbc, 0x32, 0xe7, 0x4c, 0xbe,
  0xa4, 0x00, 0x58, 0x3c, 0x0b, 0x8d, 0x7a, 0x3d, 0xa3, 0x5b, 0xec, 0x3e,
  0xf6, 0xbb, 0x6d, 0xbe, 0x44, 0xfa, 0x20, 0x3e, 0xf4, 0x6d, 0xbc, 0xbe,
  0xd0, 0x16, 0x26, 0xbe, 0x99, 0xdc, 0x0f, 0xbd, 0x17, 0xd5, 0x8b, 0x3e,
  0x37, 0xa7, 0x13, 0xbd, 0x95, 0x6e, 0x5e, 0x3e, 0xab, 0x83, 0x1f, 0xbf,
  0xd2, 0x01, 0x03, 0xbf, 0x8a, 0x33, 0xf9, 0xbe, 0xb7, 0x97, 0x04, 0x3d,
  0x3e, 0xbf, 0x76, 0xbd, 0xce, 0x5e, 0x8a, 0xbd, 0x49, 0x26, 0xae, 0x3e,
  0x2b, 0x0e, 0xb0, 0xbd, 0x3b, 0x96, 0x03, 0xbd, 0x90, 0x8d, 0x7d, 0x3d,
  0xee, 0x33, 0x62, 0x3e, 0x7c, 0xea, 0x08, 0xbf, 0x60, 0xbb, 0xba, 0xbc,
  0xca, 0x3a, 0xd0, 0x3c, 0xfa, 0x6d, 0xc4, 0xbd, 0xf2, 0x11, 0xf1, 0xbd,
  0x45, 0xa0, 0x2b, 0xbe, 0xef, 0x67, 0x0b, 0x3e, 0xa4, 0xee, 0x26, 0xbe,
  0x6e, 0xd4, 0x1e, 0x3e, 0xde, 0x6f, 0x30, 0xbe, 0x85, 0xd4, 0xa2, 0xbd,
  0x95, 0x82, 0xb1, 0xbc, 0x24, 0x47, 0x31, 0x3e, 0x97, 0x2a, 0x21, 0xbb,
  0x1e, 0xef, 0x0c, 0xbf, 0xee, 0xda, 0x15, 0x3e, 0x9f, 0x8e, 0x58, 0xbd,
  0x82, 0x41, 0x64, 0x3e, 0x8a, 0xcb, 0xc3, 0x3d, 0xb1, 0x99, 0x43, 0x3e,
  0xeb, 0x30, 0xb9, 0xbe, 0x47, 0xd1, 0x6f, 0xbe, 0x26, 0xa0, 0xe2, 0xbd,
  0x80, 0xdc, 0x00, 0xbe, 0x9c, 0x87, 0x11, 0x3f, 0xfb, 0x71, 0x94, 0x3e,
  0x60, 0x6f, 0xb3, 0x3d, 0x69, 0xa6, 0xb7, 0xbc, 0xbc, 0xe1, 0xbb, 0xbd,
  0xba, 0x87, 0x13, 0x3e, 0x73, 0xdb, 0xb2, 0xbe, 0x62, 0x74, 0xa6, 0x3e,
  0xfa, 0x94, 0xf9, 0xbd, 0x94, 0x87, 0x00, 0xbe, 0x5d, 0xf5, 0x23, 0xbd,
  0xf9, 0xfc, 0x8b, 0xbe, 0x92, 0xa8, 0x44, 0xbd, 0x4b, 0x41, 0xa3, 0xbd,
  0x99, 0x48, 0xf8, 0xbe, 0x1c, 0xf3, 0xa0, 0x3e, 0xbd, 0xd7, 0x70, 0x3d,
  0x8d, 0x64, 0x45, 0x3e, 0xfd, 0xc8, 0x4f, 0xbe, 0xdb, 0x7f, 0x99, 0xbe,
  0xaa, 0xcd, 0xc8, 0xbe, 0x81, 0xeb, 0x9f, 0xbd, 0x5c, 0xfd, 0x04, 0x3e,
  0x48, 0xa3, 0xae, 0xbe, 0x81, 0xf2, 0xac, 0xbe, 0x07, 0xcf, 0x90, 0xbe,
  0x7c, 0x51, 0x59, 0x3e, 0xeb, 0xe7, 0xd5, 0x3d, 0x2e, 0xb8, 0x41, 0xbe,
  0x8f, 0x20, 0xba, 0xbe, 0x1c, 0x12, 0x14, 0x3f, 0x28, 0x99, 0x56, 0xbd,
  0xa5, 0xc7, 0xb7, 0x3e, 0xb3, 0x94, 0x46, 0xbd, 0xcc, 0x08, 0x5f, 0x3d,
  0x7a, 0x61, 0x4b, 0xbe, 0x1b, 0xff, 0x4e, 0xbd, 0x54, 0xd2, 0xec, 0x3e,
  0x17, 0x4c, 0x4b, 0xbd, 0xb9, 0x20, 0xe9, 0xbe, 0x86, 0x74, 0x14, 0x3b,
  0xee, 0x17, 0x20, 0x3d, 0x76, 0xf0, 0x80, 0x3e, 0xbe, 0x0c, 0x4b, 0xbe,
  0xc3, 0x3a, 0xa0, 0xbb, 0xfe, 0x62, 0xa4, 0xbd, 0xb6, 0x9a, 0x80, 0x3c,
  0xe2, 0x59, 0xb5, 0xbe, 0x9c, 0xd1, 0x00, 0xbd, 0x4a, 0xdc, 0x91, 0x3d,
  0x73, 0x00, 0x87, 0x3e, 0xc5, 0xcb, 0x88, 0x3d, 0xe0, 0x9e, 0xea, 0x3e,
  0x84, 0x91, 0x16, 0x3f, 0x69, 0x90, 0xa6, 0x3d, 0x30, 0x34, 0xa7, 0xbd,
  0x19, 0xe2, 0xbf, 0xbe, 0xd7, 0x0f, 0x6b, 0xbe, 0xa5, 0x2e, 0xc3, 0xbd,
  0x4c, 0x2d, 0x33, 0x3d, 0x83, 0xf5, 0xad, 0x3e, 0xd5, 0xb5, 0xc8, 0x3e,
  0x6a, 0x1d, 0x24, 0xbd, 0x27, 0x04, 0xb7, 0xbd, 0x16, 0x7d, 0x0c, 0x3e,
  0x7d, 0x64, 0xfb, 0xbc, 0x22, 0x41, 0x03, 0xbe, 0x70, 0xa8, 0x3e, 0xbe,
  0x15, 0x6d, 0xba, 0x3e, 0xde, 0x2c, 0x24, 0x3f, 0x69, 0x90, 0x6c, 0xbe,
  0x9f, 0xe2, 0xcf, 0x3d, 0x34, 0x62, 0x8a, 0x3c, 0x6c, 0x59, 0x74, 0x3e,
  0x1f, 0x99, 0x91, 0xbe, 0xca, 0xa9, 0x10, 0x3e, 0x46, 0xcf, 0x0e, 0xbe,
  0x1e, 0x21, 0x29, 0xbe, 0x0c, 0xa8, 0xbe, 0x3e, 0xc4, 0x90, 0xc9, 0x3e,
  0x96, 0xd0, 0xe2, 0xbb, 0x9a, 0xc5, 0x26, 0xbe, 0x4e, 0xd0, 0xa9, 0x3d,
  0x5e, 0x83, 0xaf, 0x3d, 0x58, 0x04, 0xd6, 0xbd, 0x01, 0x7e, 0xcb, 0xbe,
  0xe4, 0x41, 0x67, 0xbe, 0x59, 0x7b, 0x07, 0x3e, 0x87, 0xa4, 0x28, 0xbf,
  0xfe, 0xa3, 0x89, 0xbe, 0x3d, 0x47, 0x9b, 0x3e, 0x10, 0xb5, 0xd7, 0x3d,
  0xfe, 0xf5, 0x91, 0x3e, 0x7b, 0x89, 0xd6, 0xbd, 0x81, 0x02, 0xa0, 0x3e,
  0x44, 0x4b, 0xcf, 0x3d, 0xa9, 0xc0, 0x65, 0x3e, 0x7c, 0xf2, 0x76, 0xbe,
  0xe8, 0x43, 0xd2, 0x3d, 0xc1, 0x02, 0xbf, 0xbe, 0x00, 0xc8, 0x69, 0xbe,
  0x55, 0x62, 0xaf, 0xbe, 0xce, 0xff, 0x01, 0x3e, 0x20, 0x10, 0x63, 0xbe,
  0xa3, 0xce, 0x58, 0x3d, 0x6f, 0x90, 0x69, 0xbe, 0x00, 0x52, 0x60, 0xbc,
  0x18, 0x0a, 0xcd, 0xbe, 0x67, 0xd5, 0x16, 0xbe, 0x02, 0x41, 0x51, 0xbe,
  0x45, 0x17, 0x1c, 0x3f, 0xd4, 0x4e, 0x61, 0x3e, 0xf2, 0x69, 0xa1, 0x3e,
  0xa0, 0x23, 0xa7, 0x3e, 0x7d, 0xee, 0xa6, 0xbd, 0x27, 0x37, 0x48, 0xbe,
  0x5b, 0x84, 0x21, 0xbe, 0x54, 0x8d, 0x8d, 0xbe, 0xab, 0xb8, 0xb8, 0xbc,
  0x87, 0x11, 0x9c, 0xbe, 0x0e, 0xf5, 0x0a, 0x3e, 0x0c, 0x9a, 0x12, 0x3f,
  0x04, 0x10, 0xb0, 0xbd, 0x86, 0x26, 0x43, 0x3d, 0x73, 0x41, 0x4d, 0x3e,
  0x37, 0x1a, 0xa7, 0x3d, 0xdb, 0x14, 0x85, 0xbd, 0x07, 0x5e, 0x56, 0x3e,
  0x1f, 0xcc, 0x4b, 0xbe, 0xf0, 0xee, 0xe5, 0x3d, 0x68, 0x18, 0x7d, 0x3e,
  0xcb, 0x13, 0x3e, 0xbd, 0x87, 0x33, 0xd0, 0x3e, 0x67, 0x25, 0x24, 0x3d,
  0xeb, 0x85, 0xfe, 0x3d, 0x08, 0x4a, 0x02, 0x3e, 0x67, 0x2d, 0x8b, 0xbe,
  0xc2, 0x50, 0x05, 0x3e, 0x85, 0xae, 0x53, 0xbd, 0x05, 0x26, 0xed, 0xbe,
  0xf2, 0x2b, 0x85, 0x3e, 0xa6, 0xed, 0x6d, 0x3d, 0x89, 0xfd, 0xcd, 0x3e,
  0x6c, 0xcb, 0xa5, 0xbd, 0x69, 0x23, 0xc5, 0xbe, 0x53, 0x71, 0xd6, 0xbd,
  0xf1, 0x3f, 0x83, 0xbe, 0xb0, 0x4c, 0xb7, 0x3b, 0xb7, 0x9b, 0x75, 0xbd,
  0x60, 0xca, 0xac, 0x3e, 0x7f, 0xc5, 0x0f, 0xbe, 0x07, 0x59, 0x05, 0xbf,
  0x80, 0xc2, 0x06, 0xbe, 0x6d, 0x33, 0x34, 0x3e, 0x43, 0x9c, 0xb3, 0x3d,
  0xe4, 0x82, 0x8e, 0xbb, 0x83, 0xbc, 0xca, 0xbe, 0x85, 0xfa, 0x8d, 0xbe,
  0x44, 0x96, 0x1b, 0x3d, 0x6e, 0xc5, 0x33, 0x3f, 0xa0, 0x5d, 0xd2, 0x3d,
  0x70, 0xe0, 0xf2, 0xbd, 0xdd, 0x0d, 0x98, 0xbd, 0xac, 0x46, 0xa2, 0xbd,
  0x9a, 0x47, 0x04, 0x3e, 0xbe, 0xc5, 0xf4, 0xbe, 0x74, 0x4f, 0xa2, 0xbe,
  0x80, 0x5e, 0x31, 0xbe, 0x44, 0x6b, 0x12, 0xbf, 0xfa, 0x1c, 0x85, 0x3c,
  0x45, 0xb9, 0x3f, 0xbe, 0x61, 0x94, 0x25, 0xbc, 0x50, 0x17, 0xf7, 0x3d,
  0xf8, 0x9f, 0x82, 0xbe, 0xee, 0x72, 0xcb, 0x3d, 0xe3, 0x2d, 0xa8, 0xbe,
  0xf9, 0x9e, 0x8f, 0x3e, 0xa3, 0x54, 0x4a, 0x3e, 0x21, 0xff, 0xc9, 0xbe,
  0x53, 0x51, 0xb7, 0x3d, 0xd1, 0xc0, 0x51, 0x3f, 0x81, 0x62, 0x3f, 0xbe,
  0xf1, 0xb2, 0xab, 0x3e, 0xe9, 0xac, 0x90, 0x3e, 0x3d, 0x03, 0x32, 0xbe,
  0x00, 0xfa, 0xff, 0xff, 0x04, 0xfa, 0xff, 0xff, 0x4a, 0xfd, 0xff, 0xff,
  0x04, 0x00, 0x00, 0x00, 0x80, 0x00, 0x00, 0x00, 0x60, 0xa1, 0xb0, 0xbb,
  0xbf, 0xa3, 0x96, 0x3b, 0xcb, 0xce, 0x28, 0xbf, 0xd4, 0x4e, 0x21, 0x3e,
  0x00, 0x16, 0xf1, 0x37, 0x96, 0x65, 0xc0, 0xbe, 0xb6, 0x62, 0x91, 0x3d,
  0xfc, 0x6e, 0xec, 0x3c, 0x75, 0x30, 0x8a, 0xbd, 0x74, 0xc3, 0x93, 0x3d,
  0xbd, 0x08, 0xa2, 0x3e, 0x31, 0x5d, 0xb6, 0x3d, 0x97, 0x97, 0x2f, 0x3e,
  0x70, 0xdb, 0x5e, 0xbe, 0x36, 0xfb, 0xbd, 0x3e, 0xd3, 0xad, 0x42, 0x3e,
  0x12, 0xe7, 0xe2, 0xbd, 0x0b, 0x24, 0xfe, 0xbe, 0xe4, 0x65, 0x8e, 0x3e,
  0xa4, 0x6a, 0xc9, 0xbd, 0x2d, 0xd0, 0x8f, 0x3e, 0xb4, 0xb8, 0x52, 0x3e,
  0x94, 0x2c, 0x72, 0x3e, 0x94, 0x86, 0x43, 0x3d, 0xfb, 0xa4, 0xed, 0xbd,
  0xd6, 0xac, 0x2b, 0xbe, 0x07, 0xe8, 0xab, 0xbd, 0x08, 0x54, 0x4c, 0x3d,
  0xe4, 0x50, 0x5e, 0xbb, 0x03, 0xd6, 0xa0, 0x3d, 0x9c, 0xef, 0xc5, 0xbb,
  0xfe, 0x08, 0xbb, 0x3c, 0x94, 0xfa, 0xff, 0xff, 0xda, 0xfd, 0xff, 0xff,
  0x04, 0x00, 0x00, 0x00, 0x80, 0x00, 0x00, 0x00, 0xf1, 0xb9, 0x89, 0xbd,
  0x90, 0x17, 0x8f, 0xbd, 0x17, 0xa5, 0x83, 0x3e, 0xa9, 0xbc, 0x98, 0xbe,
  0x7e, 0x86, 0x53, 0xbc, 0x84, 0xc7, 0x1c, 0x3e, 0x65, 0xd6, 0x1c, 0x3f,
  0xcf, 0xfc, 0xc9, 0xbe, 0x12, 0x79, 0xcd, 0x3d, 0x2c, 0xf3, 0x4b, 0x3e,
  0xd7, 0xd6, 0x84, 0x3d, 0x12, 0x70, 0xd3, 0xbe, 0xbe, 0x3f, 0x87, 0xbe,
  0xf1, 0xd6, 0x17, 0xbe, 0x27, 0x7d, 0x04, 0xbd, 0x66, 0xdf, 0xbf, 0xbe,
  0xc5, 0x3f, 0xa2, 0xbd, 0x5a, 0xb9, 0x73, 0x3e, 0xcc, 0xee, 0x8a, 0x3d,
  0xa6, 0x65, 0xd8, 0xbd, 0xed, 0xf1, 0xc5, 0x3c, 0xa7, 0x31, 0x90, 0x3d,
  0x46, 0xbd, 0xc8, 0xbe, 0xf9, 0x58, 0xb2, 0x3e, 0x1c, 0xd4, 0x19, 0x3e,
  0x4d, 0x31, 0x0c, 0x3e, 0xa2, 0xcf, 0x1b, 0x3e, 0x48, 0x0b, 0xfa, 0x3e,
  0x85, 0x68, 0x38, 0xbd, 0x6d, 0x3f, 0xf4, 0x3e, 0x0c, 0x6b, 0xa5, 0xbd,
  0x88, 0x76, 0xa9, 0xbe, 0x66, 0xfe, 0xff, 0xff, 0x04, 0x00, 0x00, 0x00,
  0x00, 0x01, 0x00, 0x00, 0x7f, 0x52, 0xef, 0xbd, 0xcf, 0x89, 0x6b, 0xbe,
  0xe5, 0x06, 0x97, 0xb8, 0x14, 0xa1, 0x8f, 0x3c, 0x8c, 0x64, 0xd5, 0x3e,
  0x2a, 0x90, 0x69, 0xbe, 0xa5, 0xc9, 0xc9, 0xbd, 0x0f, 0x64, 0xff, 0xb9,
  0xe9, 0x54, 0x50, 0xbe, 0xe4, 0x5e, 0x22, 0xbe, 0xe1, 0x8c, 0x6f, 0xbe,
  0x64, 0x6a, 0x75, 0x39, 0xcb, 0xa5, 0x06, 0xbe, 0xc8, 0xac, 0x9a, 0x3e,
  0xca, 0x1c, 0x63, 0xbe, 0x1d, 0xf1, 0x83, 0x3c, 0xe3, 0xe6, 0xc6, 0x3e,
  0xa9, 0xde, 0x37, 0xbe, 0x6f, 0x74, 0xe6, 0x39, 0xad, 0xe2, 0x85, 0xbe,
  0xa9, 0x4f, 0x49, 0x3e, 0xa7, 0x8d, 0xdd, 0x3a, 0xa3, 0x99, 0x90, 0x3d,
  0x4c, 0xce, 0x22, 0xbe, 0xf4, 0xdb, 0xf3, 0xbd, 0x6f, 0xef, 0x5e, 0x3d,
  0x04, 0xe7, 0x80, 0x3b, 0x47, 0xf9, 0x5f, 0xbe, 0x68, 0xe6, 0x2a, 0xbc,
  0xf4, 0x93, 0x5a, 0xbe, 0x9c, 0x0a, 0xe9, 0x3c, 0xa8, 0xa1, 0xae, 0x3e,
  0x6a, 0xc0, 0x07, 0xbe, 0x01, 0x20, 0x2d, 0xbe, 0xec, 0x2f, 0x33, 0xba,
  0xcd, 0x99, 0xbe, 0xbd, 0x12, 0x7f, 0x86, 0x3e, 0x1b, 0x38, 0x60, 0xbe,
  0x4b, 0x2b, 0x8d, 0xbd, 0x45, 0xd6, 0x3e, 0x3b, 0xff, 0xfb, 0x25, 0xbe,
  0x7c, 0xdd, 0x04, 0xbe, 0x44, 0xc4, 0x43, 0xbe, 0xb0, 0xea, 0xc3, 0xb9,
  0xc4, 0xe6, 0x20, 0xbd, 0xf9, 0xcf, 0x02, 0x3e, 0xfa, 0x32, 0x49, 0xbe,
  0x54, 0x71, 0x97, 0xbd, 0xa5, 0xb3, 0x84, 0x3e, 0xc8, 0x78, 0x29, 0xbe,
  0x78, 0x3d, 0x9f, 0x38, 0xa5, 0x00, 0x69, 0xbe, 0x7d, 0x77, 0xec, 0x3c,
  0x4c, 0x58, 0x33, 0x3d, 0xf2, 0x5c, 0x0e, 0xbc, 0x91, 0xa6, 0xea, 0xbd,
  0xf4, 0xc1, 0x0b, 0xbe, 0x9f, 0x22, 0xd6, 0xbc, 0x0f, 0xc6, 0xf9, 0xba,
  0x54, 0xda, 0x34, 0xbe, 0xd8, 0x43, 0x48, 0xbe, 0x4d, 0xe5, 0x31, 0xbe,
  0xd6, 0x64, 0x0e, 0x3c, 0xd6, 0x09, 0x8d, 0x3e, 0x72, 0xff, 0xff, 0xff,
  0x04, 0x00, 0x00, 0x00, 0x80, 0x00, 0x00, 0x00, 0x94, 0xad, 0x20, 0x3d,
  0x50, 0xcd, 0x9e, 0xb9, 0x50, 0xc9, 0x3e, 0xb4, 0x40, 0xc6, 0xa8, 0xbe,
  0x70, 0x90, 0x70, 0x3e, 0x91, 0x56, 0x89, 0x3d, 0x43, 0x64, 0xa0, 0xbe,
  0x00, 0x00, 0x00, 0x00, 0xdd, 0x68, 0x5b, 0x3e, 0xd5, 0x8f, 0x2f, 0xbe,
  0xbc, 0x45, 0xc8, 0xbd, 0xc4, 0xb4, 0x74, 0xbb, 0xea, 0x45, 0xc5, 0xbd,
  0x66, 0xc5, 0xf3, 0x3d, 0x90, 0x52, 0x3b, 0x3e, 0x46, 0xdd, 0x5c, 0xbe,
  0x4c, 0xec, 0x8d, 0x3e, 0xa5, 0x5d, 0xfd, 0x3d, 0x17, 0x48, 0xd9, 0xbb,
  0xce, 0x05, 0x1b, 0x3e, 0xf2, 0xbf, 0x17, 0x3e, 0xf7, 0x1b, 0x02, 0x3c,
  0xe3, 0x31, 0xd5, 0xbd, 0x23, 0x97, 0xf9, 0xbc, 0x1f, 0xb1, 0x12, 0xbd,
  0xee, 0x85, 0x8e, 0x3d, 0xf4, 0x99, 0x94, 0xbc, 0x45, 0xb1, 0x87, 0x3d,
  0xe4, 0xb6, 0xc7, 0xbe, 0x73, 0x69, 0xff, 0x3d, 0x70, 0xe7, 0xaa, 0xbd,
  0x72, 0xee, 0xb7, 0x3e, 0x00, 0x00, 0x06, 0x00, 0x08, 0x00, 0x04, 0x00,
  0x06, 0x00, 0x00, 0x00, 0x04, 0x00, 0x00, 0x00, 0x08, 0x00, 0x00, 0x00,
  0xf1, 0x5c, 0x83, 0x3e, 0xae, 0x94, 0x1b, 0x3e, 0xd8, 0xfc, 0xff, 0xff,
  0x0c, 0x00, 0x14, 0x00, 0x04, 0x00, 0x08, 0x00, 0x0c, 0x00, 0x10, 0x00,
  0x0c, 0x00, 0x00, 0x00, 0x20, 0x00, 0x00, 0x00, 0x14, 0x00, 0x00, 0x00,
  0x08, 0x00, 0x00, 0x00, 0xc4, 0x02, 0x00, 0x00, 0x01, 0x00, 0x00, 0x00,
  0x06, 0x00, 0x00, 0x00, 0x01, 0x00, 0x00, 0x00, 0x09, 0x00, 0x00, 0x00,
  0x0a, 0x00, 0x00, 0x00, 0xc0, 0x00, 0x00, 0x00, 0xf4, 0x00, 0x00, 0x00,
  0xa4, 0x01, 0x00, 0x00, 0x28, 0x01, 0x00, 0x00, 0x18, 0x02, 0x00, 0x00,
  0x68, 0x00, 0x00, 0x00, 0x5c, 0x01, 0x00, 0x00, 0x58, 0x02, 0x00, 0x00,
  0xc4, 0x01, 0x00, 0x00, 0x04, 0x00, 0x00, 0x00, 0xc2, 0xfd, 0xff, 0xff,
  0x10, 0x00, 0x00, 0x00, 0x0a, 0x00, 0x00, 0x00, 0x14, 0x00, 0x00, 0x00,
  0x28, 0x00, 0x00, 0x00, 0x02, 0x00, 0x00, 0x00, 0x01, 0x00, 0x00, 0x00,
  0x01, 0x00, 0x00, 0x00, 0x0b, 0x00, 0x00, 0x00, 0x64, 0x65, 0x6e, 0x73,
  0x65, 0x5f, 0x69, 0x6e, 0x70, 0x75, 0x74, 0x00, 0x08, 0x00, 0x0c, 0x00,
  0x04, 0x00, 0x08, 0x00, 0x08, 0x00, 0x00, 0x00, 0x10, 0x00, 0x00, 0x00,
  0x04, 0x00, 0x00, 0x00, 0x01, 0x00, 0x00, 0x00, 0x00, 0x00, 0x7f, 0x43,
  0x01, 0x00, 0x00, 0x00, 0x00, 0x00, 0x00, 0x00, 0x16, 0xfe, 0xff, 0xff,
  0x10, 0x00, 0x00, 0x00, 0x09, 0x00, 0x00, 0x00, 0x14, 0x00, 0x00, 0x00,
  0x30, 0x00, 0x00, 0x00, 0x02, 0x00, 0x00, 0x00, 0x20, 0x00, 0x00, 0x00,
  0x20, 0x00, 0x00, 0x00, 0x18, 0x00, 0x00, 0x00, 0x64, 0x65, 0x6e, 0x73,
  0x65, 0x5f, 0x31, 0x2f, 0x6b, 0x65, 0x72, 0x6e, 0x65, 0x6c, 0x2f, 0x74,
  0x72, 0x61, 0x6e, 0x73, 0x70, 0x6f, 0x73, 0x65, 0x00, 0x00, 0x00, 0x00,
  0xcc, 0xfd, 0xff, 0xff, 0x5a, 0xfe, 0xff, 0xff, 0x10, 0x00, 0x00, 0x00,
  0x08, 0x00, 0x00, 0x00, 0x14, 0x00, 0x00, 0x00, 0x24, 0x00, 0x00, 0x00,
  0x02, 0x00, 0x00, 0x00, 0x01, 0x00, 0x00, 0x00, 0x20, 0x00, 0x00, 0x00,
  0x0f, 0x00, 0x00, 0x00, 0x61, 0x63, 0x74, 0x69, 0x76, 0x61, 0x74, 0x69,
  0x6f, 0x6e, 0x2f, 0x52, 0x65, 0x6c, 0x75, 0x00, 0x04, 0xfe, 0xff, 0xff,
  0x92, 0xfe, 0xff, 0xff, 0x10, 0x00, 0x00, 0x00, 0x07, 0x00, 0x00, 0x00,
  0x14, 0x00, 0x00, 0x00, 0x28, 0x00, 0x00, 0x00, 0x02, 0x00, 0x00, 0x00,
  0x01, 0x00, 0x00, 0x00, 0x20, 0x00, 0x00, 0x00, 0x11, 0x00, 0x00, 0x00,
  0x61, 0x63, 0x74, 0x69, 0x76, 0x61, 0x74, 0x69, 0x6f, 0x6e, 0x5f, 0x31,
  0x2f, 0x52, 0x65, 0x6c, 0x75, 0x00, 0x00, 0x00, 0x40, 0xfe, 0xff, 0xff,
  0xce, 0xfe, 0xff, 0xff, 0x10, 0x00, 0x00, 0x00, 0x06, 0x00, 0x00, 0x00,
  0x14, 0x00, 0x00, 0x00, 0x2c, 0x00, 0x00, 0x00, 0x02, 0x00, 0x00, 0x00,
  0x20, 0x00, 0x00, 0x00, 0x01, 0x00, 0x00, 0x00, 0x16, 0x00, 0x00, 0x00,
  0x64, 0x65, 0x6e, 0x73, 0x65, 0x2f, 0x6b, 0x65, 0x72, 0x6e, 0x65, 0x6c,
  0x2f, 0x74, 0x72, 0x61, 0x6e, 0x73, 0x70, 0x6f, 0x73, 0x65, 0x00, 0x00,
  0x80, 0xfe, 0xff, 0xff, 0x0e, 0xff, 0xff, 0xff, 0x10, 0x00, 0x00, 0x00,
  0x05, 0x00, 0x00, 0x00, 0x14, 0x00, 0x00, 0x00, 0x24, 0x00, 0x00, 0x00,
  0x02, 0x00, 0x00, 0x00, 0x01, 0x00, 0x00, 0x00, 0x02, 0x00, 0x00, 0x00,
  0x0f, 0x00, 0x00, 0x00, 0x64, 0x65, 0x6e, 0x73, 0x65, 0x5f, 0x32, 0x2f,
  0x42, 0x69, 0x61, 0x73, 0x41, 0x64, 0x64, 0x00, 0xb8, 0xfe, 0xff, 0xff,
  0x46, 0xff, 0xff, 0xff, 0x10, 0x00, 0x00, 0x00, 0x04, 0x00, 0x00, 0x00,
  0x10, 0x00, 0x00, 0x00, 0x24, 0x00, 0x00, 0x00, 0x01, 0x00, 0x00, 0x00,
  0x20, 0x00, 0x00, 0x00, 0x11, 0x00, 0x00, 0x00, 0x64, 0x65, 0x6e, 0x73,
  0x65, 0x2f, 0x4d, 0x61, 0x74, 0x4d, 0x75, 0x6c, 0x5f, 0x62, 0x69, 0x61,
  0x73, 0x00, 0x00, 0x00, 0xf0, 0xfe, 0xff, 0xff, 0x7e, 0xff, 0xff, 0xff,
  0x10, 0x00, 0x00, 0x00, 0x03, 0x00, 0x00, 0x00, 0x14, 0x00, 0x00, 0x00,
  0x30, 0x00, 0x00, 0x00, 0x02, 0x00, 0x00, 0x00, 0x02, 0x00, 0x00, 0x00,
  0x20, 0x00, 0x00, 0x00, 0x18, 0x00, 0x00, 0x00, 0x64, 0x65, 0x6e, 0x73,
  0x65, 0x5f, 0x32, 0x2f, 0x6b, 0x65, 0x72, 0x6e, 0x65, 0x6c, 0x2f, 0x74,
  0x72, 0x61, 0x6e, 0x73, 0x70, 0x6f, 0x73, 0x65, 0x00, 0x00, 0x00, 0x00,
  0x34, 0xff, 0xff, 0xff, 0xc2, 0xff, 0xff, 0xff, 0x10, 0x00, 0x00, 0x00,
  0x02, 0x00, 0x00, 0x00, 0x10, 0x00, 0x00, 0x00, 0x28, 0x00, 0x00, 0x00,
  0x01, 0x00, 0x00, 0x00, 0x20, 0x00, 0x00, 0x00, 0x13, 0x00, 0x00, 0x00,
  0x64, 0x65, 0x6e, 0x73, 0x65, 0x5f, 0x31, 0x2f, 0x4d, 0x61, 0x74, 0x4d,
  0x75, 0x6c, 0x5f, 0x62, 0x69, 0x61, 0x73, 0x00, 0x04, 0x00, 0x06, 0x00,
  0x04, 0x00, 0x00, 0x00, 0x00, 0x00, 0x0e, 0x00, 0x14, 0x00, 0x04, 0x00,
  0x00, 0x00, 0x08, 0x00, 0x0c, 0x00, 0x10, 0x00, 0x0e, 0x00, 0x00, 0x00,
  0x10, 0x00, 0x00, 0x00, 0x01, 0x00, 0x00, 0x00, 0x10, 0x00, 0x00, 0x00,
  0x24, 0x00, 0x00, 0x00, 0x01, 0x00, 0x00, 0x00, 0x02, 0x00, 0x00, 0x00,
  0x13, 0x00, 0x00, 0x00, 0x64, 0x65, 0x6e, 0x73, 0x65, 0x5f, 0x32, 0x2f,
  0x4d, 0x61, 0x74, 0x4d, 0x75, 0x6c, 0x5f, 0x62, 0x69, 0x61, 0x73, 0x00,
  0xb8, 0xff, 0xff, 0xff, 0x03, 0x00, 0x00, 0x00, 0x98, 0x00, 0x00, 0x00,
  0x44, 0x00, 0x00, 0x00, 0x04, 0x00, 0x00, 0x00, 0x88, 0xff, 0xff, 0xff,
  0x00, 0x00, 0x00, 0x08, 0x10, 0x00, 0x00, 0x00, 0x1c, 0x00, 0x00, 0x00,
  0x28, 0x00, 0x00, 0x00, 0x1c, 0x00, 0x00, 0x00, 0x03, 0x00, 0x00, 0x00,
  0x01, 0x00, 0x00, 0x00, 0x08, 0x00, 0x00, 0x00, 0x07, 0x00, 0x00, 0x00,
  0x01, 0x00, 0x00, 0x00, 0x06, 0x00, 0x00, 0x00, 0x00, 0x00, 0x00, 0x00,
  0x04, 0x00, 0x04, 0x00, 0x04, 0x00, 0x00, 0x00, 0xc4, 0xff, 0xff, 0xff,
  0x00, 0x00, 0x00, 0x08, 0x10, 0x00, 0x00, 0x00, 0x1c, 0x00, 0x00, 0x00,
  0x24, 0x00, 0x00, 0x00, 0x1c, 0x00, 0x00, 0x00, 0x03, 0x00, 0x00, 0x00,
  0x00, 0x00, 0x00, 0x00, 0x05, 0x00, 0x00, 0x00, 0x04, 0x00, 0x00, 0x00,
  0x01, 0x00, 0x00, 0x00, 0x01, 0x00, 0x00, 0x00, 0x00, 0x00, 0x00, 0x00,
  0x8e, 0xff, 0xff, 0xff, 0x00, 0x00, 0x00, 0x01, 0x14, 0x00, 0x18, 0x00,
  0x00, 0x00, 0x08, 0x00, 0x0c, 0x00, 0x07, 0x00, 0x10, 0x00, 0x00, 0x00,
  0x00, 0x00, 0x14, 0x00, 0x14, 0x00, 0x00, 0x00, 0x00, 0x00, 0x00, 0x08,
  0x10, 0x00, 0x00, 0x00, 0x1c, 0x00, 0x00, 0x00, 0x24, 0x00, 0x00, 0x00,
  0x1c, 0x00, 0x00, 0x00, 0x03, 0x00, 0x00, 0x00, 0x09, 0x00, 0x00, 0x00,
  0x03, 0x00, 0x00, 0x00, 0x02, 0x00, 0x00, 0x00, 0x01, 0x00, 0x00, 0x00,
  0x00, 0x00, 0x00, 0x00, 0x00, 0x00, 0x00, 0x00, 0xde, 0xff, 0xff, 0xff,
  0x00, 0x00, 0x00, 0x01, 0x01, 0x00, 0x00, 0x00, 0x04, 0x00, 0x00, 0x00,
  0xfa, 0xff, 0xff, 0xff, 0x00, 0x09, 0x06, 0x00, 0x06, 0x00, 0x05, 0x00,
  0x06, 0x00, 0x00, 0x00, 0x00, 0x09, 0x06, 0x00, 0x08, 0x00, 0x07, 0x00,
  0x06, 0x00, 0x00, 0x00, 0x00, 0x00, 0x00, 0x09
};
const int rl_model_len = 5960;
