unsigned char model_quantized_tflite[] = {
  0x18, 0x00, 0x00, 0x00, 0x54, 0x46, 0x4c, 0x33, 0x00, 0x00, 0x0e, 0x00,
  0x18, 0x00, 0x04, 0x00, 0x08, 0x00, 0x0c, 0x00, 0x10, 0x00, 0x14, 0x00,
  0x0e, 0x00, 0x00, 0x00, 0x03, 0x00, 0x00, 0x00, 0x74, 0x09, 0x00, 0x00,
  0xb8, 0x05, 0x00, 0x00, 0xa0, 0x05, 0x00, 0x00, 0x04, 0x00, 0x00, 0x00,
  0x0b, 0x00, 0x00, 0x00, 0x90, 0x05, 0x00, 0x00, 0x7c, 0x05, 0x00, 0x00,
  0x24, 0x05, 0x00, 0x00, 0xd4, 0x04, 0x00, 0x00, 0x84, 0x04, 0x00, 0x00,
  0x7c, 0x04, 0x00, 0x00, 0x2c, 0x04, 0x00, 0x00, 0x24, 0x04, 0x00, 0x00,
  0x1c, 0x04, 0x00, 0x00, 0x0c, 0x00, 0x00, 0x00, 0x04, 0x00, 0x00, 0x00,
  0xf4, 0xf6, 0xff, 0xff, 0xb6, 0xfa, 0xff, 0xff, 0x04, 0x00, 0x00, 0x00,
  0x00, 0x04, 0x00, 0x00, 0x68, 0xef, 0x24, 0xbd, 0xab, 0x03, 0xc4, 0xbd,
  0x78, 0x7f, 0xea, 0x3d, 0xa0, 0xc8, 0x04, 0xbe, 0x3e, 0xba, 0xb9, 0xbc,
  0x64, 0xbd, 0xa3, 0x3e, 0xde, 0xd0, 0xbc, 0xbe, 0x1a, 0xc5, 0x2d, 0x3f,
  0x16, 0xb7, 0x06, 0xbf, 0xd0, 0xe1, 0xce, 0xbc, 0xba, 0xae, 0xef, 0x3e,
  0xcb, 0x82, 0x02, 0x3e, 0xf5, 0x93, 0x74, 0xbd, 0x0d, 0x5e, 0x3c, 0x3e,
  0xa5, 0x85, 0xdd, 0xbc, 0xd6, 0xd2, 0x1e, 0x3f, 0x9e, 0x01, 0x90, 0xbe,
  0xee, 0xf9, 0x7a, 0xbe, 0xd9, 0xd6, 0xe3, 0xbd, 0xe1, 0x66, 0x0f, 0x3f,
  0x4e, 0x4b, 0x6d, 0x3e, 0xa0, 0xe0, 0x17, 0xbd, 0x0f, 0x02, 0x03, 0x3e,
  0x8e, 0xdf, 0xd0, 0x3e, 0x85, 0xfe, 0x6d, 0x3e, 0xfc, 0x45, 0x8f, 0x3f,
  0x0c, 0x68, 0x60, 0x3e, 0xf6, 0x87, 0x06, 0x3f, 0xb5, 0x2b, 0x10, 0xbe,
  0x2b, 0x72, 0x00, 0xbe, 0xff, 0x99, 0x10, 0x3f, 0x7c, 0x47, 0xfb, 0xbd,
  0x5e, 0x33, 0xb2, 0xbe, 0xef, 0x2e, 0xf3, 0xbe, 0x07, 0xbc, 0xa1, 0x3d,
  0x7a, 0x19, 0x77, 0xbe, 0x83, 0x23, 0x55, 0xbe, 0xc7, 0x52, 0x1f, 0x3f,
  0xcc, 0x4e, 0x36, 0xbf, 0x40, 0x0e, 0x47, 0x3d, 0x27, 0xa4, 0x8d, 0x3e,
  0xdb, 0x15, 0x78, 0xbe, 0x97, 0x64, 0xc3, 0xbe, 0x34, 0xcf, 0x25, 0x3e,
  0x96, 0xcb, 0xfc, 0x3e, 0x2e, 0xe5, 0x85, 0xbe, 0x66, 0xcb, 0xfa, 0x3d,
  0x36, 0x7b, 0x5e, 0xbd, 0x84, 0x88, 0x0a, 0x3f, 0xd1, 0x3a, 0x87, 0xbe,
  0x40, 0xe2, 0x0f, 0xbf, 0x54, 0x8b, 0x5d, 0x3d, 0x52, 0x4f, 0x26, 0x3f,
  0xdc, 0xc8, 0xfa, 0x3e, 0x10, 0x9c, 0xad, 0x3e, 0x57, 0x4a, 0xef, 0x3e,
  0x6d, 0x41, 0x00, 0x3f, 0xbb, 0x2f, 0x6e, 0x3f, 0xdf, 0x83, 0x0c, 0x3d,
  0x35, 0x60, 0xbb, 0xbe, 0xe7, 0xf9, 0xc5, 0x3e, 0x07, 0x29, 0x1a, 0x3f,
  0x7c, 0xea, 0x8b, 0xbd, 0x3f, 0xea, 0x94, 0xbe, 0x61, 0xb1, 0x96, 0xbe,
  0x83, 0x64, 0x34, 0xbe, 0x21, 0xf1, 0x05, 0x3e, 0x4c, 0x41, 0x65, 0x3b,
  0x8a, 0x57, 0xbb, 0xbe, 0xd8, 0x73, 0x39, 0x3f, 0x2f, 0x8c, 0xa5, 0x3e,
  0xb8, 0xdb, 0xd0, 0xbe, 0xd6, 0xa8, 0x5c, 0x3c, 0x43, 0x4c, 0x0f, 0x3d,
  0x09, 0x4b, 0x21, 0x3f, 0xb8, 0xef, 0x2c, 0x3c, 0xcf, 0xba, 0xa0, 0xbe,
  0x4c, 0xb6, 0xbf, 0x3b, 0xc8, 0x8f, 0xad, 0xbe, 0x89, 0x65, 0x10, 0xbf,
  0xf0, 0xdb, 0x0b, 0x3e, 0x12, 0x97, 0x9e, 0x3c, 0x06, 0x33, 0x1b, 0x3f,
  0x07, 0x04, 0x0c, 0xbe, 0xf0, 0x19, 0xd8, 0x3e, 0xf7, 0xad, 0x0e, 0x3e,
  0xc1, 0xb3, 0xa9, 0x3e, 0x18, 0x11, 0x6f, 0x3c, 0x7c, 0xb6, 0xdc, 0x3d,
  0x73, 0x10, 0x65, 0x3e, 0xbd, 0x8a, 0x93, 0xbd, 0x58, 0x1b, 0xf8, 0x3d,
  0xc2, 0xa7, 0x1f, 0x3e, 0x18, 0x07, 0x45, 0xbf, 0xf5, 0x45, 0x2d, 0xbf,
  0xd0, 0x93, 0xb6, 0x3e, 0xd1, 0x08, 0xcf, 0xbd, 0x56, 0x7e, 0xdb, 0x3e,
  0x88, 0x3e, 0x9d, 0xbe, 0x4e, 0x74, 0x1a, 0xbf, 0x66, 0x41, 0x71, 0x3b,
  0x06, 0x70, 0xd0, 0xbe, 0x24, 0x0f, 0x92, 0xbe, 0x41, 0x37, 0x9c, 0x3e,
  0x31, 0x6c, 0xc5, 0x3c, 0x2b, 0x94, 0xe9, 0xbd, 0x02, 0xa3, 0xeb, 0x3e,
  0x0e, 0x57, 0x89, 0x3e, 0x70, 0xcc, 0xa9, 0x3e, 0x43, 0x9b, 0xae, 0xbe,
  0xbc, 0xa6, 0x8c, 0xbe, 0xd3, 0x5f, 0x20, 0xbf, 0xf8, 0x89, 0x51, 0xbd,
  0xf4, 0xdc, 0x7d, 0x3e, 0xa7, 0xfb, 0x07, 0xbf, 0xdd, 0xb2, 0xd1, 0xbe,
  0x98, 0x00, 0x2c, 0x3e, 0xea, 0x36, 0xc0, 0x3e, 0x24, 0x0b, 0xab, 0x3e,
  0xa2, 0x1c, 0x17, 0x3d, 0x14, 0xc4, 0x64, 0x3e, 0x12, 0xda, 0xd9, 0xbe,
  0xa4, 0x2e, 0xfb, 0x3d, 0xb5, 0x16, 0x4c, 0x3d, 0xbf, 0x7a, 0xf4, 0xbe,
  0x19, 0x0b, 0x20, 0xbf, 0x2b, 0xf5, 0x0c, 0x3f, 0xee, 0xa4, 0x8f, 0x3e,
  0xe7, 0x68, 0x93, 0x3e, 0xda, 0x43, 0x4b, 0x3f, 0xcd, 0x6e, 0x9c, 0x3d,
  0x9a, 0xf3, 0xad, 0x3c, 0x12, 0xd3, 0x89, 0x3d, 0xdb, 0x73, 0xc5, 0x3e,
  0xfb, 0x4a, 0xa5, 0xbe, 0x07, 0xc3, 0x02, 0xbf, 0x84, 0x2b, 0x23, 0xbd,
  0x3b, 0x98, 0x8b, 0x3e, 0x4d, 0xe9, 0x90, 0xbe, 0xd4, 0x75, 0x23, 0x3f,
  0x82, 0xe0, 0x7e, 0x3d, 0xb8, 0x5d, 0x3f, 0x3e, 0x4c, 0x42, 0xd5, 0x3d,
  0x29, 0x5c, 0x2e, 0xbc, 0x34, 0x78, 0x4b, 0xbe, 0x3b, 0xd2, 0xdb, 0xbe,
  0xda, 0x52, 0x9e, 0xbe, 0xac, 0x9c, 0xb0, 0xbe, 0x9a, 0x80, 0x63, 0x3f,
  0x4d, 0x61, 0x97, 0x3b, 0xe4, 0xab, 0x71, 0x3e, 0x2c, 0xc0, 0x0e, 0xbf,
  0xdd, 0x6a, 0x02, 0xbf, 0x2a, 0xe3, 0x77, 0x3e, 0x6e, 0xaf, 0xf9, 0x3d,
  0xae, 0xe5, 0x6d, 0x3e, 0xdf, 0xfd, 0x76, 0x3e, 0xf9, 0xde, 0xc4, 0x3e,
  0x6b, 0x13, 0x82, 0x3e, 0xd9, 0x4a, 0xa7, 0x3d, 0x15, 0x56, 0xc9, 0x3c,
  0x40, 0xb7, 0x25, 0x3e, 0x50, 0x1e, 0x73, 0x3e, 0x50, 0x66, 0xf6, 0x3e,
  0x05, 0xe1, 0x8c, 0x3f, 0x44, 0x15, 0x86, 0x3e, 0xe5, 0x88, 0xef, 0xbe,
  0x2d, 0x8e, 0xc7, 0x3d, 0xc3, 0x1e, 0x6e, 0x3e, 0x59, 0xff, 0x25, 0x3e,
  0xd4, 0xdc, 0xaa, 0x3e, 0xd2, 0xa0, 0x07, 0xbf, 0x01, 0x08, 0x9e, 0xbe,
  0x20, 0xc0, 0x2b, 0x3e, 0x96, 0x4d, 0x7b, 0x3e, 0xd2, 0xec, 0xb7, 0xbe,
  0x35, 0x43, 0x0c, 0x3f, 0x7c, 0x66, 0xcb, 0xbe, 0xd4, 0x2a, 0x85, 0xbe,
  0x49, 0x10, 0xab, 0x3d, 0x01, 0x26, 0x81, 0x3e, 0x07, 0x5a, 0x03, 0xbe,
  0x87, 0x74, 0x88, 0xbe, 0x8a, 0x34, 0xdd, 0xbe, 0x51, 0x69, 0x5e, 0x3f,
  0xf0, 0x82, 0xb8, 0x3e, 0xa0, 0x24, 0x45, 0x3f, 0x4c, 0xd1, 0xcc, 0x3d,
  0xe7, 0x74, 0x0b, 0xbc, 0x81, 0xab, 0x72, 0x3e, 0x89, 0x9b, 0xa3, 0x3d,
  0x5d, 0x5f, 0xdc, 0x3e, 0x89, 0x1a, 0x76, 0x3f, 0x12, 0xec, 0xf6, 0xbe,
  0x3c, 0x88, 0x48, 0x3e, 0x8b, 0x30, 0x1a, 0xbd, 0xd9, 0xd0, 0x44, 0x3b,
  0x4a, 0xd7, 0xa4, 0xbc, 0x0b, 0x44, 0xce, 0xbd, 0xea, 0x64, 0x1b, 0x3d,
  0x40, 0x87, 0xfe, 0xbe, 0xab, 0xd4, 0x15, 0xbe, 0x61, 0x01, 0x7d, 0x3d,
  0xe6, 0x01, 0x68, 0x3e, 0x2a, 0x27, 0xd8, 0xbd, 0xe0, 0x4b, 0x91, 0xbe,
  0xe0, 0x66, 0xbb, 0x3e, 0x85, 0x88, 0xe3, 0xbe, 0xf7, 0xe5, 0xda, 0x3d,
  0x98, 0x30, 0x41, 0xbe, 0x7a, 0xb6, 0x35, 0x3f, 0x8d, 0x02, 0xca, 0xbe,
  0x93, 0x46, 0x05, 0x3f, 0x8c, 0xe2, 0x08, 0x3c, 0x16, 0xbd, 0xe8, 0x3e,
  0xd6, 0x29, 0xb1, 0x3e, 0x99, 0xfd, 0x40, 0x3f, 0x8e, 0x5e, 0x91, 0x3e,
  0xef, 0xbc, 0x43, 0x3e, 0xb3, 0x8a, 0x69, 0x3e, 0xe3, 0x1f, 0x39, 0xbd,
  0xc2, 0x5b, 0x56, 0x3f, 0xb0, 0xbb, 0x0f, 0x3f, 0xa2, 0x9b, 0x71, 0xbe,
  0x35, 0x73, 0xd0, 0x3d, 0x8c, 0x71, 0x1d, 0x3e, 0x83, 0x3f, 0x86, 0x3b,
  0xab, 0x73, 0x41, 0xbf, 0xcb, 0xff, 0x00, 0xbf, 0xe6, 0xd2, 0xab, 0x3d,
  0x5e, 0xd2, 0xaa, 0xbe, 0x30, 0x79, 0x23, 0xbc, 0xd9, 0xc6, 0x93, 0xbe,
  0xbb, 0xf4, 0xa2, 0x3e, 0x58, 0xdd, 0xe3, 0xbe, 0x01, 0x84, 0xa5, 0xbe,
  0x9a, 0x7e, 0x2e, 0xbf, 0x0e, 0x23, 0x05, 0xbe, 0x58, 0x4c, 0x58, 0xbe,
  0x4a, 0x33, 0xc5, 0x3d, 0x59, 0xb0, 0xb4, 0xbd, 0xff, 0x9a, 0x48, 0x3e,
  0x7b, 0x52, 0x98, 0x3e, 0x11, 0x8a, 0x79, 0xbe, 0xb9, 0xc7, 0x3a, 0xbe,
  0x36, 0x5c, 0x4c, 0xbd, 0xf0, 0xa2, 0x0f, 0x3d, 0x9e, 0xaf, 0xa7, 0xbe,
  0xd2, 0x27, 0x14, 0xbe, 0x5a, 0x01, 0xdc, 0x3e, 0xcb, 0x15, 0xa1, 0x3e,
  0x11, 0xd9, 0x31, 0xbf, 0x69, 0x1e, 0x14, 0x3f, 0x68, 0x44, 0x92, 0xbe,
  0xff, 0x53, 0x1f, 0x3f, 0x6c, 0x3f, 0xbd, 0x3d, 0x04, 0xfb, 0xff, 0xff,
  0x08, 0xfb, 0xff, 0xff, 0xca, 0xfe, 0xff, 0xff, 0x04, 0x00, 0x00, 0x00,
  0x40, 0x00, 0x00, 0x00, 0xcd, 0x82, 0xc9, 0xbe, 0xf1, 0x3a, 0x54, 0x3c,
  0x50, 0xce, 0x23, 0xbd, 0x73, 0x41, 0x7e, 0xbf, 0x79, 0x15, 0xd2, 0xbd,
  0x3c, 0x64, 0x08, 0xbf, 0x87, 0xc3, 0x74, 0xbe, 0x4c, 0xa9, 0xd9, 0xbe,
  0x68, 0x28, 0xc1, 0xbe, 0xc8, 0xf1, 0xb4, 0x3e, 0x10, 0xf5, 0xb7, 0x3e,
  0x5c, 0x98, 0x5c, 0x3d, 0x17, 0xea, 0x90, 0xbe, 0x1a, 0x81, 0xf9, 0x3d,
  0x4a, 0x7c, 0x3e, 0xbf, 0x39, 0x04, 0xb7, 0xbb, 0x58, 0xfb, 0xff, 0xff,
  0x1a, 0xff, 0xff, 0xff, 0x04, 0x00, 0x00, 0x00, 0x40, 0x00, 0x00, 0x00,
  0x90, 0xf5, 0x16, 0x3d, 0xfd, 0x39, 0x2a, 0xbc, 0x94, 0x27, 0xaa, 0xbc,
  0x6b, 0xf5, 0x83, 0x3d, 0x44, 0x4c, 0x95, 0x3e, 0x73, 0xec, 0x1f, 0x3d,
  0xae, 0xa8, 0xba, 0x3d, 0x07, 0x97, 0xaf, 0x3d, 0xa6, 0x30, 0x81, 0x3e,
  0xd5, 0xdf, 0x8e, 0x3e, 0x42, 0x78, 0x6a, 0x3e, 0xe5, 0x96, 0xf3, 0xbc,
  0x2f, 0x9a, 0x74, 0x3c, 0x69, 0xf5, 0x96, 0x3e, 0x80, 0x9f, 0xc5, 0x3c,
  0x69, 0xd1, 0x08, 0xbc, 0x66, 0xff, 0xff, 0xff, 0x04, 0x00, 0x00, 0x00,
  0x40, 0x00, 0x00, 0x00, 0x57, 0x0c, 0xde, 0xbc, 0xb1, 0xff, 0xd6, 0xbc,
  0x3b, 0x54, 0x23, 0xbb, 0xa4, 0x11, 0x8c, 0xbc, 0x15, 0x4c, 0xa0, 0xbc,
  0x98, 0xb9, 0x04, 0x3b, 0x9d, 0xf0, 0xd2, 0xbb, 0x61, 0xfc, 0x4d, 0xba,
  0xe6, 0xd8, 0x4b, 0xba, 0x10, 0xca, 0x89, 0xbc, 0x7d, 0xb7, 0xa9, 0xbc,
  0x8e, 0xde, 0xbf, 0xbc, 0xd9, 0x95, 0x77, 0x3b, 0x95, 0x1f, 0x3a, 0xbc,
  0xd0, 0x1c, 0x93, 0x3a, 0xd2, 0x2f, 0xbc, 0xbc, 0xb2, 0xff, 0xff, 0xff,
  0x04, 0x00, 0x00, 0x00, 0x40, 0x00, 0x00, 0x00, 0x59, 0x09, 0x05, 0xbe,
  0xe8, 0xaf, 0x8a, 0x3e, 0xca, 0xab, 0x0a, 0xbd, 0x3b, 0x8f, 0x5b, 0x3e,
  0xce, 0x51, 0x0c, 0xbd, 0x32, 0x3a, 0xc8, 0xbc, 0x3c, 0x0b, 0x9b, 0xbc,
  0xf5, 0x90, 0x97, 0xbd, 0xd6, 0x89, 0xb6, 0xbd, 0xc2, 0x6e, 0x56, 0x3e,
  0xa0, 0x00, 0x7c, 0x3e, 0xd5, 0x35, 0x52, 0x3e, 0x07, 0x10, 0x0a, 0xbd,
  0xca, 0x86, 0x75, 0x3e, 0x00, 0x00, 0x00, 0x00, 0x73, 0x26, 0x7d, 0xbd,
  0x00, 0x00, 0x06, 0x00, 0x08, 0x00, 0x04, 0x00, 0x06, 0x00, 0x00, 0x00,
  0x04, 0x00, 0x00, 0x00, 0x04, 0x00, 0x00, 0x00, 0x88, 0x06, 0x26, 0xbc,
  0x58, 0xfc, 0xff, 0xff, 0x0f, 0x00, 0x00, 0x00, 0x54, 0x4f, 0x43, 0x4f,
  0x20, 0x43, 0x6f, 0x6e, 0x76, 0x65, 0x72, 0x74, 0x65, 0x64, 0x2e, 0x00,
  0x01, 0x00, 0x00, 0x00, 0x10, 0x00, 0x00, 0x00, 0x0c, 0x00, 0x14, 0x00,
  0x04, 0x00, 0x08, 0x00, 0x0c, 0x00, 0x10, 0x00, 0x0c, 0x00, 0x00, 0x00,
  0xf0, 0x00, 0x00, 0x00, 0xe4, 0x00, 0x00, 0x00, 0xd8, 0x00, 0x00, 0x00,
  0x04, 0x00, 0x00, 0x00, 0x03, 0x00, 0x00, 0x00, 0x90, 0x00, 0x00, 0x00,
  0x48, 0x00, 0x00, 0x00, 0x04, 0x00, 0x00, 0x00, 0xce, 0xff, 0xff, 0xff,
  0x00, 0x00, 0x00, 0x08, 0x18, 0x00, 0x00, 0x00, 0x0c, 0x00, 0x00, 0x00,
  0x04, 0x00, 0x00, 0x00, 0xbc, 0xfc, 0xff, 0xff, 0x01, 0x00, 0x00, 0x00,
  0x06, 0x00, 0x00, 0x00, 0x03, 0x00, 0x00, 0x00, 0x01, 0x00, 0x00, 0x00,
  0x08, 0x00, 0x00, 0x00, 0x07, 0x00, 0x00, 0x00, 0x00, 0x00, 0x0e, 0x00,
  0x14, 0x00, 0x00, 0x00, 0x08, 0x00, 0x0c, 0x00, 0x07, 0x00, 0x10, 0x00,
  0x0e, 0x00, 0x00, 0x00, 0x00, 0x00, 0x00, 0x08, 0x1c, 0x00, 0x00, 0x00,
  0x10, 0x00, 0x00, 0x00, 0x04, 0x00, 0x00, 0x00, 0xba, 0xff, 0xff, 0xff,
  0x00, 0x00, 0x00, 0x01, 0x01, 0x00, 0x00, 0x00, 0x01, 0x00, 0x00, 0x00,
  0x03, 0x00, 0x00, 0x00, 0x00, 0x00, 0x00, 0x00, 0x05, 0x00, 0x00, 0x00,
  0x04, 0x00, 0x00, 0x00, 0x00, 0x00, 0x0e, 0x00, 0x16, 0x00, 0x00, 0x00,
  0x08, 0x00, 0x0c, 0x00, 0x07, 0x00, 0x10, 0x00, 0x0e, 0x00, 0x00, 0x00,
  0x00, 0x00, 0x00, 0x08, 0x24, 0x00, 0x00, 0x00, 0x18, 0x00, 0x00, 0x00,
  0x0c, 0x00, 0x00, 0x00, 0x00, 0x00, 0x06, 0x00, 0x08, 0x00, 0x07, 0x00,
  0x06, 0x00, 0x00, 0x00, 0x00, 0x00, 0x00, 0x01, 0x01, 0x00, 0x00, 0x00,
  0x00, 0x00, 0x00, 0x00, 0x03, 0x00, 0x00, 0x00, 0x09, 0x00, 0x00, 0x00,
  0x03, 0x00, 0x00, 0x00, 0x02, 0x00, 0x00, 0x00, 0x01, 0x00, 0x00, 0x00,
  0x06, 0x00, 0x00, 0x00, 0x01, 0x00, 0x00, 0x00, 0x09, 0x00, 0x00, 0x00,
  0x0a, 0x00, 0x00, 0x00, 0x70, 0x02, 0x00, 0x00, 0x20, 0x02, 0x00, 0x00,
  0xe4, 0x01, 0x00, 0x00, 0xa0, 0x01, 0x00, 0x00, 0x64, 0x01, 0x00, 0x00,
  0x1c, 0x01, 0x00, 0x00, 0xe0, 0x00, 0x00, 0x00, 0xa4, 0x00, 0x00, 0x00,
  0x5c, 0x00, 0x00, 0x00, 0x04, 0x00, 0x00, 0x00, 0xc6, 0xfd, 0xff, 0xff,
  0x44, 0x00, 0x00, 0x00, 0x0a, 0x00, 0x00, 0x00, 0x2c, 0x00, 0x00, 0x00,
  0x0c, 0x00, 0x00, 0x00, 0x08, 0x00, 0x0c, 0x00, 0x04, 0x00, 0x08, 0x00,
  0x08, 0x00, 0x00, 0x00, 0x10, 0x00, 0x00, 0x00, 0x04, 0x00, 0x00, 0x00,
  0x01, 0x00, 0x00, 0x00, 0x00, 0x00, 0x7f, 0x43, 0x01, 0x00, 0x00, 0x00,
  0x00, 0x00, 0x00, 0x00, 0x0b, 0x00, 0x00, 0x00, 0x64, 0x65, 0x6e, 0x73,
  0x65, 0x5f, 0x69, 0x6e, 0x70, 0x75, 0x74, 0x00, 0x02, 0x00, 0x00, 0x00,
  0x01, 0x00, 0x00, 0x00, 0x01, 0x00, 0x00, 0x00, 0x1a, 0xfe, 0xff, 0xff,
  0x34, 0x00, 0x00, 0x00, 0x03, 0x00, 0x00, 0x00, 0x0c, 0x00, 0x00, 0x00,
  0x04, 0x00, 0x00, 0x00, 0x0c, 0xfe, 0xff, 0xff, 0x18, 0x00, 0x00, 0x00,
  0x64, 0x65, 0x6e, 0x73, 0x65, 0x5f, 0x32, 0x2f, 0x6b, 0x65, 0x72, 0x6e,
  0x65, 0x6c, 0x2f, 0x74, 0x72, 0x61, 0x6e, 0x73, 0x70, 0x6f, 0x73, 0x65,
  0x00, 0x00, 0x00, 0x00, 0x02, 0x00, 0x00, 0x00, 0x01, 0x00, 0x00, 0x00,
  0x10, 0x00, 0x00, 0x00, 0x5e, 0xfe, 0xff, 0xff, 0x2c, 0x00, 0x00, 0x00,
  0x01, 0x00, 0x00, 0x00, 0x0c, 0x00, 0x00, 0x00, 0x04, 0x00, 0x00, 0x00,
  0x50, 0xfe, 0xff, 0xff, 0x13, 0x00, 0x00, 0x00, 0x64, 0x65, 0x6e, 0x73,
  0x65, 0x5f, 0x32, 0x2f, 0x4d, 0x61, 0x74, 0x4d, 0x75, 0x6c, 0x5f, 0x62,
  0x69, 0x61, 0x73, 0x00, 0x01, 0x00, 0x00, 0x00, 0x01, 0x00, 0x00, 0x00,
  0x96, 0xfe, 0xff, 0xff, 0x28, 0x00, 0x00, 0x00, 0x05, 0x00, 0x00, 0x00,
  0x0c, 0x00, 0x00, 0x00, 0x04, 0x00, 0x00, 0x00, 0x88, 0xfe, 0xff, 0xff,
  0x0f, 0x00, 0x00, 0x00, 0x64, 0x65, 0x6e, 0x73, 0x65, 0x5f, 0x32, 0x2f,
  0x42, 0x69, 0x61, 0x73, 0x41, 0x64, 0x64, 0x00, 0x02, 0x00, 0x00, 0x00,
  0x01, 0x00, 0x00, 0x00, 0x01, 0x00, 0x00, 0x00, 0xce, 0xfe, 0xff, 0xff,
  0x34, 0x00, 0x00, 0x00, 0x09, 0x00, 0x00, 0x00, 0x0c, 0x00, 0x00, 0x00,
  0x04, 0x00, 0x00, 0x00, 0xc0, 0xfe, 0xff, 0xff, 0x18, 0x00, 0x00, 0x00,
  0x64, 0x65, 0x6e, 0x73, 0x65, 0x5f, 0x31, 0x2f, 0x6b, 0x65, 0x72, 0x6e,
  0x65, 0x6c, 0x2f, 0x74, 0x72, 0x61, 0x6e, 0x73, 0x70, 0x6f, 0x73, 0x65,
  0x00, 0x00, 0x00, 0x00, 0x02, 0x00, 0x00, 0x00, 0x10, 0x00, 0x00, 0x00,
  0x10, 0x00, 0x00, 0x00, 0x12, 0xff, 0xff, 0xff, 0x2c, 0x00, 0x00, 0x00,
  0x02, 0x00, 0x00, 0x00, 0x0c, 0x00, 0x00, 0x00, 0x04, 0x00, 0x00, 0x00,
  0x04, 0xff, 0xff, 0xff, 0x13, 0x00, 0x00, 0x00, 0x64, 0x65, 0x6e, 0x73,
  0x65, 0x5f, 0x31, 0x2f, 0x4d, 0x61, 0x74, 0x4d, 0x75, 0x6c, 0x5f, 0x62,
  0x69, 0x61, 0x73, 0x00, 0x01, 0x00, 0x00, 0x00, 0x10, 0x00, 0x00, 0x00,
  0x4a, 0xff, 0xff, 0xff, 0x30, 0x00, 0x00, 0x00, 0x06, 0x00, 0x00, 0x00,
  0x0c, 0x00, 0x00, 0x00, 0x04, 0x00, 0x00, 0x00, 0x3c, 0xff, 0xff, 0xff,
  0x16, 0x00, 0x00, 0x00, 0x64, 0x65, 0x6e, 0x73, 0x65, 0x2f, 0x6b, 0x65,
  0x72, 0x6e, 0x65, 0x6c, 0x2f, 0x74, 0x72, 0x61, 0x6e, 0x73, 0x70, 0x6f,
  0x73, 0x65, 0x00, 0x00, 0x02, 0x00, 0x00, 0x00, 0x10, 0x00, 0x00, 0x00,
  0x01, 0x00, 0x00, 0x00, 0x8a, 0xff, 0xff, 0xff, 0x2c, 0x00, 0x00, 0x00,
  0x04, 0x00, 0x00, 0x00, 0x0c, 0x00, 0x00, 0x00, 0x04, 0x00, 0x00, 0x00,
  0x7c, 0xff, 0xff, 0xff, 0x11, 0x00, 0x00, 0x00, 0x64, 0x65, 0x6e, 0x73,
  0x65, 0x2f, 0x4d, 0x61, 0x74, 0x4d, 0x75, 0x6c, 0x5f, 0x62, 0x69, 0x61,
  0x73, 0x00, 0x00, 0x00, 0x01, 0x00, 0x00, 0x00, 0x10, 0x00, 0x00, 0x00,
  0xc2, 0xff, 0xff, 0xff, 0x2c, 0x00, 0x00, 0x00, 0x07, 0x00, 0x00, 0x00,
  0x0c, 0x00, 0x00, 0x00, 0x04, 0x00, 0x00, 0x00, 0xb4, 0xff, 0xff, 0xff,
  0x11, 0x00, 0x00, 0x00, 0x61, 0x63, 0x74, 0x69, 0x76, 0x61, 0x74, 0x69,
  0x6f, 0x6e, 0x5f, 0x31, 0x2f, 0x52, 0x65, 0x6c, 0x75, 0x00, 0x00, 0x00,
  0x02, 0x00, 0x00, 0x00, 0x01, 0x00, 0x00, 0x00, 0x10, 0x00, 0x00, 0x00,
  0x00, 0x00, 0x0e, 0x00, 0x14, 0x00, 0x04, 0x00, 0x00, 0x00, 0x08, 0x00,
  0x0c, 0x00, 0x10, 0x00, 0x0e, 0x00, 0x00, 0x00, 0x2c, 0x00, 0x00, 0x00,
  0x08, 0x00, 0x00, 0x00, 0x10, 0x00, 0x00, 0x00, 0x08, 0x00, 0x00, 0x00,
  0x04, 0x00, 0x04, 0x00, 0x04, 0x00, 0x00, 0x00, 0x0f, 0x00, 0x00, 0x00,
  0x61, 0x63, 0x74, 0x69, 0x76, 0x61, 0x74, 0x69, 0x6f, 0x6e, 0x2f, 0x52,
  0x65, 0x6c, 0x75, 0x00, 0x02, 0x00, 0x00, 0x00, 0x01, 0x00, 0x00, 0x00,
  0x10, 0x00, 0x00, 0x00, 0x01, 0x00, 0x00, 0x00, 0x10, 0x00, 0x00, 0x00,
  0x00, 0x00, 0x0a, 0x00, 0x0c, 0x00, 0x07, 0x00, 0x00, 0x00, 0x08, 0x00,
  0x0a, 0x00, 0x00, 0x00, 0x00, 0x00, 0x00, 0x09, 0x03, 0x00, 0x00, 0x00
};
unsigned int model_quantized_tflite_len = 2484;
